{
  "version": "1.0",
  "truncation": null,
  "padding": null,
  "added_tokens": [
    {
      "id": 0,
      "content": "<|endoftext|>",
      "single_word": false,
      "lstrip": false,
      "rstrip": false,
      "normalized": false,
      "special": true
    },
    {
      "id": 1,
      "content": "<|pad|>",
      "single_word": false,
      "lstrip": false,
      "rstrip": false,
      "normalized": false,
      "special": true
    },
    {
      "id": 2,
      "content": "<|unk|>",
      "single_word": false,
      "lstrip": false,
      "rstrip": false,
      "normalized": false,
      "special": true
    }
  ],
  "normalizer": null,
  "pre_tokenizer": {
    "type": "ByteLevel",
    "add_prefix_space": false,
    "trim_offsets": true,
    "use_regex": true
  },
  "post_processor": null,
  "decoder": {
    "type": "ByteLevel",
    "add_prefix_space": true,
    "trim_offsets": true,
    "use_regex": true
  },
  "model": {
    "type": "BPE",
    "dropout": null,
    "unk_token": "<|unk|>",
    "continuing_subword_prefix": null,
    "end_of_word_suffix": null,
    "fuse_unk": false,
    "byte_fallback": false,
    "ignore_merges": false,
    "vocab": {
      "<|endoftext|>": 0,
      "<|pad|>": 1,
      "<|unk|>": 2,
      "!": 3,
      "\"": 4,
      "#": 5,
      "$": 6,
      "%": 7,
      "&": 8,
      "'": 9,
      "(": 10,
      ")": 11,
      "*": 12,
      "+": 13,
      ",": 14,
      "-": 15,
      ".": 16,
      "/": 17,
      "0": 18,
      "1": 19,
      "2": 20,
      "3": 21,
      "4": 22,
      "5": 23,
      "6": 24,
      "7": 25,
      "8": 26,
      "9": 27,
      ":": 28,
      ";": 29,
      "<": 30,
      "=": 31,
      ">": 32,
      "?": 33,
      "@": 34,
      "A": 35,
      "B": 36,
      "C": 37,
      "D": 38,
      "E": 39,
      "F": 40,
      "G": 41,
      "H": 42,
      "I": 43,
      "J": 44,
      "K": 45,
      "L": 46,
      "M": 47,
      "N": 48,
      "O": 49,
      "P": 50,
      "Q": 51,
      "R": 52,
      "S": 53,
      "T": 54,
      "U": 55,
      "V": 56,
      "W": 57,
      "X": 58,
      "Y": 59,
      "Z": 60,
      "[": 61,
      "\\": 62,
      "]": 63,
      "^": 64,
      "_": 65,
      "`": 66,
      "a": 67,
      "b": 68,
      "c": 69,
      "d": 70,
      "e": 71,
      "f": 72,
      "g": 73,
      "h": 74,
      "i": 75,
      "j": 76,
      "k": 77,
      "l": 78,
      "m": 79,
      "n": 80,
      "o": 81,
      "p": 82,
      "q": 83,
      "r": 84,
      "s": 85,
      "t": 86,
      "u": 87,
      "v": 88,
      "w": 89,
      "x": 90,
      "y": 91,
      "z": 92,
      "{": 93,
      "|": 94,
      "}": 95,
      "~": 96,
      "¡": 97,
      "¢": 98,
      "£": 99,
      "¤": 100,
      "¥": 101,
      "¦": 102,
      "§": 103,
      "¨": 104,
      "©": 105,
      "ª": 106,
      "«": 107,
      "¬": 108,
      "®": 109,
      "¯": 110,
      "°": 111,
      "±": 112,
      "²": 113,
      "³": 114,
      "´": 115,
      "µ": 116,
      "¶": 117,
      "·": 118,
      "¸": 119,
      "¹": 120,
      "º": 121,
      "»": 122,
      "¼": 123,
      "½": 124,
      "¾": 125,
      "¿": 126,
      "À": 127,
      "Á": 128,
      "Â": 129,
      "Ã": 130,
      "Ä": 131,
      "Å": 132,
      "Æ": 133,
      "Ç": 134,
      "È": 135,
      "É": 136,
      "Ê": 137,
      "Ë": 138,
      "Ì": 139,
      "Í": 140,
      "Î": 141,
      "Ï": 142,
      "Ð": 143,
      "Ñ": 144,
      "Ò": 145,
      "Ó": 146,
      "Ô": 147,
      "Õ": 148,
      "Ö": 149,
      "×": 150,
      "Ø": 151,
      "Ù": 152,
      "Ú": 153,
      "Û": 154,
      "Ü": 155,
      "Ý": 156,
      "Þ": 157,
      "ß": 158,
      "à": 159,
      "á": 160,
      "â": 161,
      "ã": 162,
      "ä": 163,
      "å": 164,
      "æ": 165,
      "ç": 166,
      "è": 167,
      "é": 168,
      "ê": 169,
      "ë": 170,
      "ì": 171,
      "í": 172,
      "î": 173,
      "ï": 174,
      "ð": 175,
      "ñ": 176,
      "ò": 177,
      "ó": 178,
      "ô": 179,
      "õ": 180,
      "ö": 181,
      "÷": 182,
      "ø": 183,
      "ù": 184,
      "ú": 185,
      "û": 186,
      "ü": 187,
      "ý": 188,
      "þ": 189,
      "ÿ": 190,
      "Ā": 191,
      "ā": 192,
      "Ă": 193,
      "ă": 194,
      "Ą": 195,
      "ą": 196,
      "Ć": 197,
      "ć": 198,
      "Ĉ": 199,
      "ĉ": 200,
      "Ċ": 201,
      "ċ": 202,
      "Č": 203,
      "č": 204,
      "Ď": 205,
      "ď": 206,
      "Đ": 207,
      "đ": 208,
      "Ē": 209,
      "ē": 210,
      "Ĕ": 211,
      "ĕ": 212,
      "Ė": 213,
      "ė": 214,
      "Ę": 215,
      "ę": 216,
      "Ě": 217,
      "ě": 218,
      "Ĝ": 219,
      "ĝ": 220,
      "Ğ": 221,
      "ğ": 222,
      "Ġ": 223,
      "ġ": 224,
      "Ģ": 225,
      "ģ": 226,
      "Ĥ": 227,
      "ĥ": 228,
      "Ħ": 229,
      "ħ": 230,
      "Ĩ": 231,
      "ĩ": 232,
      "Ī": 233,
      "ī": 234,
      "Ĭ": 235,
      "ĭ": 236,
      "Į": 237,
      "į": 238,
      "İ": 239,
      "ı": 240,
      "Ĳ": 241,
      "ĳ": 242,
      "Ĵ": 243,
      "ĵ": 244,
      "Ķ": 245,
      "ķ": 246,
      "ĸ": 247,
      "Ĺ": 248,
      "ĺ": 249,
      "Ļ": 250,
      "ļ": 251,
      "Ľ": 252,
      "ľ": 253,
      "Ŀ": 254,
      "ŀ": 255,
      "Ł": 256,
      "ł": 257,
      "Ń": 258,
      "Ġa": 259,
      "in": 260,
      "Ġt": 261,
      "Ġo": 262,
      "Ġs": 263,
      "ing": 264,
      "it": 265,
      "Ġb": 266,
      "Ġw": 267,
      "he": 268,
      "Ġp": 269,
      "an": 270,
      "re": 271,
      "Ġc": 272,
      "le": 273,
      "er": 274,
      "Ġon": 275,
      "at": 276,
      "Ġof": 277,
      "Ġin": 278,
      "ar": 279,
      "ro": 280,
      "Ġthe": 281,
      "Ġf": 282,
      "is": 283,
      "Ġan": 284,
      "Ġm": 285,
      "ith": 286,
      "Ġwith": 287,
      "Ġh": 288,
      "en": 289,
      "Ġg": 290,
      "Ġd": 291,
      "Ġand": 292,
      "Ġto": 293,
      "Ġl": 294,
      "al": 295,
      "Ġst": 296,
      "om": 297,
      "ra": 298,
      "ding": 299,
      "es": 300,
      "ed": 301,
      "on": 302,
      "ck": 303,
      "Ġis": 304,
      "or": 305,
      "et": 306,
      "ow": 307,
      "la": 308,
      "un": 309,
      "ir": 310,
      "Ġn": 311,
      "op": 312,
      "Ġman": 313,
      "as": 314,
      "ting": 315,
      "Ġsit": 316,
      "oo": 317,
      "id": 318,
      "all": 319,
      "ch": 320,
      "up": 321,
      "Ġne": 322,
      "il": 323,
      "el": 324,
      "ot": 325,
      "ur": 326,
      "ig": 327,
      "ut": 328,
      "Ġwh": 329,
      "Ġsitting": 330,
      "Ġstan": 331,
      "ic": 332,
      "ge": 333,
      "ol": 334,
      "ers": 335,
      "wo": 336,
      "Ġare": 337,
      "us": 338,
      "king": 339,
      "Ġth": 340,
      "ide": 341,
      "Ġat": 342,
      "ite": 343,
      "Ġbe": 344,
      "her": 345,
      "ri": 346,
      "ab": 347,
      "Ġe": 348,
      "Ġre": 349,
      "ard": 350,
      "ss": 351,
      "Ġstanding": 352,
      "Ġtra": 353,
      "Ġco": 354,
      "ying": 355,
      "ople": 356,
      "eople": 357,
      "Ġro": 358,
      "xt": 359,
      "Ġsk": 360,
      "Ġnext": 361,
      "ad": 362,
      "eb": 363,
      "Ġwom": 364,
      "ver": 365,
      "Ġpla": 366,
      "ve": 367,
      "able": 368,
      "Ġwhite": 369,
      "Ġpeople": 370,
      "Ġbo": 371,
      "Ġdo": 372,
      "Ġk": 373,
      "The": 374,
      "lo": 375,
      "Ġit": 376,
      "Ġwoman": 377,
      "und": 378,
      "ile": 379,
      "ff": 380,
      "ood": 381,
      "Ġstre": 382,
      "Ġpl": 383,
      "Ġtable": 384,
      "Ġhol": 385,
      "ome": 386,
      "Ġfro": 387,
      "Ġstreet": 388,
      "Ġfi": 389,
      "Ġthat": 390,
      "Ġpar": 391,
      "Two": 392,
      "Ġsh": 393,
      "Ġgro": 394,
      "Ġholding": 395,
      "Ġla": 396,
      "Ġtop": 397,
      "Ġgra": 398,
      "ce": 399,
      "nt": 400,
      "oard": 401,
      "Ġy": 402,
      "ate": 403,
      "Ġch": 404,
      "arge": 405,
      "own": 406,
      "erson": 407,
      "ant": 408,
      "am": 409,
      "Ġperson": 410,
      "Ġlarge": 411,
      "Ġsm": 412,
      "Ġcat": 413,
      "Ġbat": 414,
      "oun": 415,
      "nis": 416,
      "Ġten": 417,
      "and": 418,
      "Ġup": 419,
      "ach": 420,
      "Ġtennis": 421,
      "Ġpi": 422,
      "igh": 423,
      "Ġgroup": 424,
      "eld": 425,
      "um": 426,
      "Ġdown": 427,
      "ion": 428,
      "Ġv": 429,
      "che": 430,
      "Ġri": 431,
      "Ġclo": 432,
      "Ġsome": 433,
      "Ġwat": 434,
      "ul": 435,
      "Ġcar": 436,
      "Ġfield": 437,
      "Ġnear": 438,
      "Ġtrain": 439,
      "ke": 440,
      "se": 441,
      "Ġbus": 442,
      "ree": 443,
      "Ġfl": 444,
      "Ġout": 445,
      "ign": 446,
      "Ġside": 447,
      "Ġdog": 448,
      "ure": 449,
      "Ġra": 450,
      "Ġfront": 451,
      "Ġbu": 452,
      "lack": 453,
      "Ġpark": 454,
      "Ġsign": 455,
      "ind": 456,
      "st": 457,
      "Ġplate": 458,
      "Ġwal": 459,
      "Ġsur": 460,
      "Ġblack": 461,
      "Ġhis": 462,
      "Ġbuil": 463,
      "ack": 464,
      "ug": 465,
      "round": 466,
      "row": 467,
      "Ġbuilding": 468,
      "Ġriding": 469,
      "Ġroom": 470,
      "ight": 471,
      "Ġsmall": 472,
      "room": 473,
      "Ġgrass": 474,
      "ay": 475,
      "Ġph": 476,
      "ain": 477,
      "ell": 478,
      "Ġloo": 479,
      "reen": 480,
      "Ġsn": 481,
      "Ġbl": 482,
      "ue": 483,
      "Ġbas": 484,
      "Ġcom": 485,
      "Ġhas": 486,
      "oung": 487,
      "Ġby": 488,
      "one": 489,
      "Ġred": 490,
      "pt": 491,
      "im": 492,
      "side": 493,
      "Ġwater": 494,
      "red": 495,
      "Ġbath": 496,
      "Ġtwo": 497,
      "Ġsurf": 498,
      "Ġplaying": 499,
      "ving": 500,
      "Ġkit": 501,
      "air": 502,
      "Ġr": 503,
      "Ġsnow": 504,
      "ph": 505,
      "ink": 506,
      "Ġplay": 507,
      "Ġyoung": 508,
      "An": 509,
      "Ġfood": 510,
      "eball": 511,
      "Ġpo": 512,
      "zz": 513,
      "Ġfor": 514,
      "board": 515,
      "cle": 516,
      "ter": 517,
      "ru": 518,
      "Ġwalking": 519,
      "ct": 520,
      "Ġair": 521,
      "Ġbaseball": 522,
      "Ġbathroom": 523,
      "Ġpizz": 524,
      "Ġher": 525,
      "ffe": 526,
      "Ġgreen": 527,
      "Ġbed": 528,
      "Ġhor": 529,
      "ycle": 530,
      "Ġwhile": 531,
      "Ġot": 532,
      "Ġother": 533,
      "ran": 534,
      "ture": 535,
      "Ġmot": 536,
      "Ġli": 537,
      "Ġwood": 538,
      "Ġj": 539,
      "Ġpizza": 540,
      "Ġgi": 541,
      "Ġskat": 542,
      "umb": 543,
      "ity": 544,
      "irt": 545,
      "age": 546,
      "Ġse": 547,
      "Ġback": 548,
      "Ġblue": 549,
      "ds": 550,
      "aring": 551,
      "Ġcomp": 552,
      "Ġpic": 553,
      "Ġele": 554,
      "chen": 555,
      "Ġdes": 556,
      "Ġbear": 557,
      "Ġparked": 558,
      "Ġkitchen": 559,
      "Ġskateb": 560,
      "tle": 561,
      "Ġlooking": 562,
      "ugh": 563,
      "Ġben": 564,
      "ie": 565,
      "Ġball": 566,
      "Ġz": 567,
      "Ġover": 568,
      "Ġwa": 569,
      "ep": 570,
      "Ġclock": 571,
      "Ġroad": 572,
      "ame": 573,
      "Ġle": 574,
      "Ġpicture": 575,
      "ilet": 576,
      "Ġmotor": 577,
      "Ġtoilet": 578,
      "Ġgira": 579,
      "Ġskateboard": 580,
      "ptop": 581,
      "ake": 582,
      "Ġcity": 583,
      "irl": 584,
      "Ġlaptop": 585,
      "Ġcomput": 586,
      "Ġbeach": 587,
      "Ġhe": 588,
      "Ġboy": 589,
      "Ġdis": 590,
      "ild": 591,
      "get": 592,
      "phant": 593,
      "ent": 594,
      "rel": 595,
      "Ġeat": 596,
      "Ġwe": 597,
      "Ġgirl": 598,
      "Ġtow": 599,
      "Ġcon": 600,
      "led": 601,
      "Ġgame": 602,
      "Ġelephant": 603,
      "Th": 604,
      "rella": 605,
      "cks": 606,
      "Ġumb": 607,
      "uple": 608,
      "Ġski": 609,
      "Ġumbrella": 610,
      "Ġmotorc": 611,
      "Ġmen": 612,
      "Ġcouple": 613,
      "Ġsits": 614,
      "ebra": 615,
      "Ġpas": 616,
      "Ġwind": 617,
      "Ġmotorcycle": 618,
      "ong": 619,
      "dy": 620,
      "Ġbench": 621,
      "veral": 622,
      "pp": 623,
      "Ġsl": 624,
      "Ġplayer": 625,
      "Ġfrom": 626,
      "Ġdesk": 627,
      "Ġcomputer": 628,
      "Ġflying": 629,
      "ld": 630,
      "tain": 631,
      "lass": 632,
      "ous": 633,
      "Ġwearing": 634,
      "Ġzebra": 635,
      "Ġal": 636,
      "Ġchair": 637,
      "Ġshe": 638,
      "Ġchild": 639,
      "ub": 640,
      "rown": 641,
      "ĠA": 642,
      "rough": 643,
      "Ġlight": 644,
      "Ġwindow": 645,
      "Ġthrough": 646,
      "ine": 647,
      "Ġwooden": 648,
      "ice": 649,
      "Ġsink": 650,
      "Ġwall": 651,
      "Ġhand": 652,
      "ill": 653,
      "ane": 654,
      "ee": 655,
      "Ġint": 656,
      "Ġarea": 657,
      "pen": 658,
      "Ġsand": 659,
      "Ġboard": 660,
      "Ġphone": 661,
      "Ġhorse": 662,
      "Ġas": 663,
      "Ġaround": 664,
      "Ġsc": 665,
      "Ġtheir": 666,
      "Ġbrown": 667,
      "Ġlaying": 668,
      "Ġund": 669,
      "Ġoutside": 670,
      "Ġcake": 671,
      "ellow": 672,
      "Ġunder": 673,
      "Ġbow": 674,
      "Ġold": 675,
      "ull": 676,
      "Ġglass": 677,
      "ris": 678,
      "Ġbir": 679,
      "Ġlit": 680,
      "ks": 681,
      "oto": 682,
      "Ġstop": 683,
      "Ġyellow": 684,
      "Ġsp": 685,
      "Ġoran": 686,
      "ap": 687,
      "Ġopen": 688,
      "Ġcour": 689,
      "Ġboat": 690,
      "Ġphoto": 691,
      "bo": 692,
      "Ġtree": 693,
      "Ġeating": 694,
      "hind": 695,
      "Ġbehind": 696,
      "Ġfire": 697,
      "Ġbowl": 698,
      "ase": 699,
      "Ġliving": 700,
      "Ġone": 701,
      "Ġte": 702,
      "ort": 703,
      "Ġcol": 704,
      "qu": 705,
      "les": 706,
      "Ġban": 707,
      "Ġlot": 708,
      "Ġcourt": 709,
      "Ġta": 710,
      "ĠT": 711,
      "ross": 712,
      "Ġeach": 713,
      "way": 714,
      "Ġde": 715,
      "Ġtru": 716,
      "cc": 717,
      "pla": 718,
      "Ġsw": 719,
      "ore": 720,
      "ation": 721,
      "Ġdi": 722,
      "Ġsurfboard": 723,
      "ground": 724,
      "vered": 725,
      "There": 726,
      "Ġflo": 727,
      "illed": 728,
      "Ġbanan": 729,
      "very": 730,
      "Ġtre": 731,
      "Ġsky": 732,
      "risb": 733,
      "Ġclose": 734,
      "Three": 735,
      "Ġbun": 736,
      "Ġcovered": 737,
      "'s": 738,
      "alk": 739,
      "Ġgiraffe": 740,
      "ses": 741,
      "Ġtrees": 742,
      "Ġshow": 743,
      "Ġve": 744,
      "Ġtoget": 745,
      "Ġtogether": 746,
      "Ġcell": 747,
      "uit": 748,
      "Ġcoun": 749,
      "Ġlittle": 750,
      "eat": 751,
      "ly": 752,
      "ction": 753,
      "Ġairp": 754,
      "Ġso": 755,
      "Ġbr": 756,
      "Ġcow": 757,
      "ets": 758,
      "Ġfen": 759,
      "Ġvery": 760,
      "Ġen": 761,
      "Ġfilled": 762,
      "risbee": 763,
      "walk": 764,
      "Ġmo": 765,
      "ry": 766,
      "ped": 767,
      "ors": 768,
      "Ġorange": 769,
      "ag": 770,
      "Ġoff": 771,
      "ves": 772,
      "Ġrack": 773,
      "Ġbackground": 774,
      "Ġhy": 775,
      "ady": 776,
      "Ġtruck": 777,
      "People": 778,
      "dr": 779,
      "Ġabo": 780,
      "Ġdispla": 781,
      "dle": 782,
      "Se": 783,
      "Ġhydr": 784,
      "iew": 785,
      "if": 786,
      "Ġmoun": 787,
      "Ġrun": 788,
      "Ġhydrant": 789,
      "Ġinside": 790,
      "ush": 791,
      "Ġsidewalk": 792,
      "Ġbird": 793,
      "uch": 794,
      "Ġcars": 795,
      "Several": 796,
      "ip": 797,
      "ts": 798,
      "Ġkite": 799,
      "ump": 800,
      "eddy": 801,
      "Ġdri": 802,
      "Ġparking": 803,
      "Ġshirt": 804,
      "Ġwave": 805,
      "Ġcut": 806,
      "Ġfence": 807,
      "Ġwomen": 808,
      "rent": 809,
      "Ġstands": 810,
      "Ġsheep": 811,
      "Ġdisplay": 812,
      "rick": 813,
      "Ġref": 814,
      "Ġits": 815,
      "Ġpie": 816,
      "Ġinto": 817,
      "Ġtower": 818,
      "ĠS": 819,
      "Ġsuit": 820,
      "Ġbi": 821,
      "do": 822,
      "ted": 823,
      "Ġteddy": 824,
      "Ġbunch": 825,
      "ĠW": 826,
      "Ġapp": 827,
      "Ġmir": 828,
      "Ġskis": 829,
      "Ġmirro": 830,
      "IN": 831,
      "Ġstand": 832,
      "Ġflow": 833,
      "Ġbig": 834,
      "Ġgo": 835,
      "Ġhead": 836,
      "ment": 837,
      "sing": 838,
      "Ġtall": 839,
      "ffic": 840,
      "Ġmirror": 841,
      "Ġma": 842,
      "Ġsandw": 843,
      "ich": 844,
      "Ġview": 845,
      "fferent": 846,
      "Ġmid": 847,
      "orm": 848,
      "Ġoce": 849,
      "Ġocean": 850,
      "Ġcounter": 851,
      "Ġbot": 852,
      "Ġmet": 853,
      "Ġtracks": 854,
      "ner": 855,
      "ffes": 856,
      "ook": 857,
      "ey": 858,
      "Ġdifferent": 859,
      "ace": 860,
      "here": 861,
      "Ġdirt": 862,
      "Ġracket": 863,
      "two": 864,
      "imal": 865,
      "Ġmountain": 866,
      "ress": 867,
      "ches": 868,
      "Ġalong": 869,
      "ruit": 870,
      "etting": 871,
      "Ġswing": 872,
      "ching": 873,
      "Ġtraffic": 874,
      "Ġcouch": 875,
      "Man": 876,
      "ren": 877,
      "Ġanimal": 878,
      "Ġgiraffes": 879,
      "Ġfruit": 880,
      "ouse": 881,
      "ang": 882,
      "ated": 883,
      "Ġgrassy": 884,
      "Ġelephants": 885,
      "Ġfloor": 886,
      "uff": 887,
      "Ġpre": 888,
      "Ġhot": 889,
      "ies": 890,
      "mp": 891,
      "Ġbro": 892,
      "Ġtaking": 893,
      "Ġzebras": 894,
      "Ġfull": 895,
      "Ġrest": 896,
      "Ġdr": 897,
      "Ġstation": 898,
      "other": 899,
      "uring": 900,
      "Ġjump": 901,
      "vel": 902,
      "ark": 903,
      "Ġhorses": 904,
      "Ġplat": 905,
      "rol": 906,
      "Ġfrisbee": 907,
      "iling": 908,
      "Ġairpl": 909,
      "ĠB": 910,
      "Ġim": 911,
      "ick": 912,
      "kes": 913,
      "Ġanother": 914,
      "Ġsa": 915,
      "Ġmiddle": 916,
      "te": 917,
      "Ġmany": 918,
      "Ġar": 919,
      "Ġha": 920,
      "Ġbeing": 921,
      "aby": 922,
      "Ġhill": 923,
      "Ġgraz": 924,
      "erat": 925,
      "Ġday": 926,
      "Ġcam": 927,
      "Ġdress": 928,
      "Ġsandwich": 929,
      "Ġcor": 930,
      "Ġveget": 931,
      "our": 932,
      "Ġbaby": 933,
      "Ġche": 934,
      "Ġfe": 935,
      "Ġlong": 936,
      "ult": 937,
      "Ġhit": 938,
      "Ġvase": 939,
      "are": 940,
      "Ġbananas": 941,
      "ven": 942,
      "Ġground": 943,
      "Ġsun": 944,
      "Ġcont": 945,
      "Ġairplane": 946,
      "hing": 947,
      "rig": 948,
      "Ġbes": 949,
      "ler": 950,
      "ari": 951,
      "Ġready": 952,
      "ugg": 953,
      "HE": 954,
      "Ġun": 955,
      "Ġus": 956,
      "Ġser": 957,
      "ces": 958,
      "Ġsigns": 959,
      "Ġcur": 960,
      "Ġstuff": 961,
      "Ġflowers": 962,
      "ched": 963,
      "Ġseveral": 964,
      "oli": 965,
      "Ġkey": 966,
      "Ġvegetable": 967,
      "der": 968,
      "ĠO": 969,
      "Ġgu": 970,
      "Ġcross": 971,
      "Ġpole": 972,
      "Ġherd": 973,
      "Ġpass": 974,
      "rigerat": 975,
      "Some": 976,
      "Ġrefrigerat": 977,
      "era": 978,
      "Ġhat": 979,
      "Ġbox": 980,
      "Ġbeside": 981,
      "ii": 982,
      "ning": 983,
      "Ġtie": 984,
      "Ġthem": 985,
      "Ġhang": 986,
      "Ġplane": 987,
      "Ġslop": 988,
      "Ġimage": 989,
      "Ġkeyboard": 990,
      "there": 991,
      "ccoli": 992,
      "rying": 993,
      "Ġcamera": 994,
      "Ġtravel": 995,
      "Ġchildren": 996,
      "Ġabove": 997,
      "Ġbike": 998,
      "ĠF": 999,
      "Ġpast": 1000,
      "Ġcup": 1001,
      "th": 1002,
      "Ġac": 1003,
      "Ġgrazing": 1004,
      "RE": 1005,
      "cor": 1006,
      "ĠC": 1007,
      "ideo": 1008,
      "Ġdoing": 1009,
      "Ġsnowy": 1010,
      "Ġcontrol": 1011,
      "Ġrefrigerator": 1012,
      "Ġbic": 1013,
      "Ġem": 1014,
      "Ġvideo": 1015,
      "Ġbroccoli": 1016,
      "Ġwait": 1017,
      "uggage": 1018,
      "Ġwor": 1019,
      "Ġmon": 1020,
      "Ġbuildings": 1021,
      "Ġpro": 1022,
      "Ġcrow": 1023,
      "Ġskiing": 1024,
      "Ġdriving": 1025,
      "Ġstuffed": 1026,
      "Ġacross": 1027,
      "Ġcl": 1028,
      "Ġthree": 1029,
      "Ġduring": 1030,
      "Ġlo": 1031,
      "Ġluggage": 1032,
      "Ġsto": 1033,
      "uts": 1034,
      "vis": 1035,
      "hes": 1036,
      "ust": 1037,
      "Ġad": 1038,
      "Ġpiece": 1039,
      "Ġslope": 1040,
      "Ġcrowd": 1041,
      "Ġglasses": 1042,
      "Ġtele": 1043,
      "Ġbottle": 1044,
      "sh": 1045,
      "Ġdoor": 1046,
      "Ġbears": 1047,
      "Ġdecor": 1048,
      "ac": 1049,
      "Ġwho": 1050,
      "Ġrac": 1051,
      "ING": 1052,
      "ten": 1053,
      "Ġpain": 1054,
      "Ġbicycle": 1055,
      "Ġcle": 1056,
      "Ġhigh": 1057,
      "eng": 1058,
      "urn": 1059,
      "ade": 1060,
      "Ġcolor": 1061,
      "Ġcorner": 1062,
      "Ġoven": 1063,
      "Ġdogs": 1064,
      "Ġprep": 1065,
      "idge": 1066,
      "pty": 1067,
      "Ġposing": 1068,
      "Ġvari": 1069,
      "Ġvegetables": 1070,
      "Ġmonit": 1071,
      "ms": 1072,
      "Ġper": 1073,
      "Ġtrack": 1074,
      "This": 1075,
      "vision": 1076,
      "ak": 1077,
      "Ġrem": 1078,
      "Ġguy": 1079,
      "ire": 1080,
      "Ġpink": 1081,
      "Ġcows": 1082,
      "Ġtrick": 1083,
      "ess": 1084,
      "Ġempty": 1085,
      "ful": 1086,
      "Ġwalk": 1087,
      "Ġlooks": 1088,
      "Ġpasseng": 1089,
      "Ġtraveling": 1090,
      "Ġnight": 1091,
      "ries": 1092,
      "Ġkid": 1093,
      "Ġtopped": 1094,
      "Ġcontain": 1095,
      "Ġgetting": 1096,
      "Ġplayers": 1097,
      "Ġlights": 1098,
      "Ġgoing": 1099,
      "Ġfore": 1100,
      "Ġbanana": 1101,
      "Ġanimals": 1102,
      "Ġtelevision": 1103,
      "ĠP": 1104,
      "Ġpap": 1105,
      "ool": 1106,
      "quet": 1107,
      "Ġhanging": 1108,
      "ored": 1109,
      "Ġag": 1110,
      "Ġskate": 1111,
      "Ġholds": 1112,
      "Ġwatching": 1113,
      "Ġtal": 1114,
      "Ġcab": 1115,
      "Ġdin": 1116,
      "Ġkn": 1117,
      "Ġwine": 1118,
      "Ġme": 1119,
      "Ġscreen": 1120,
      "pe": 1121,
      "Ġpat": 1122,
      "ars": 1123,
      "Ġdrink": 1124,
      "ian": 1125,
      "ĠI": 1126,
      "Ġface": 1127,
      "Ġchairs": 1128,
      "ccer": 1129,
      "form": 1130,
      "gg": 1131,
      "some": 1132,
      "Ġpair": 1133,
      "Ġremot": 1134,
      "Ġpot": 1135,
      "ank": 1136,
      "ans": 1137,
      "Ġdon": 1138,
      "Ġrail": 1139,
      "Ġsoccer": 1140,
      "ud": 1141,
      "Ġrid": 1142,
      "Ġplates": 1143,
      "Ġstove": 1144,
      "aur": 1145,
      "Ġbre": 1146,
      "ese": 1147,
      "Ġswinging": 1148,
      "Ġracquet": 1149,
      "Ġhome": 1150,
      "ast": 1151,
      "Ġriver": 1152,
      "Ġcarro": 1153,
      "Ġjumping": 1154,
      "Ġcolorful": 1155,
      "Ġagain": 1156,
      "Ġbag": 1157,
      "Ġsmiling": 1158,
      "Ġinters": 1159,
      "Ġboats": 1160,
      "Ġusing": 1161,
      "Ġcabin": 1162,
      "aurant": 1163,
      "Ġagainst": 1164,
      "ection": 1165,
      "Ġrow": 1166,
      "Ġrunning": 1167,
      "Ġrestaurant": 1168,
      "Ġtalking": 1169,
      "ive": 1170,
      "Ġlin": 1171,
      "Ġintersection": 1172,
      "Ġbook": 1173,
      "leep": 1174,
      "Ġall": 1175,
      "ced": 1176,
      "Ġlea": 1177,
      "Ġmeat": 1178,
      "Ġdoub": 1179,
      "Ġmotorcycles": 1180,
      "Ġcutting": 1181,
      "Ġwaiting": 1182,
      "Ġset": 1183,
      "Ġtray": 1184,
      "Ġabout": 1185,
      "oes": 1186,
      "Ġcan": 1187,
      "Ġbusy": 1188,
      "Ġkites": 1189,
      "Ġlike": 1190,
      "Ġpaper": 1191,
      "Ġboo": 1192,
      "ĠWii": 1193,
      "cl": 1194,
      "ings": 1195,
      "alf": 1196,
      "Ġrain": 1197,
      "Ġsurfer": 1198,
      "gra": 1199,
      "Ġhim": 1200,
      "Ġslic": 1201,
      "ges": 1202,
      "Ġbrick": 1203,
      "Ġbody": 1204,
      "Ġseat": 1205,
      "Ġbirds": 1206,
      "Ġsuitc": 1207,
      "omet": 1208,
      "elf": 1209,
      "Ġskier": 1210,
      "Ġite": 1211,
      "Ġpull": 1212,
      "Ġstat": 1213,
      "Ġshower": 1214,
      "Ġdressed": 1215,
      "omething": 1216,
      "ave": 1217,
      "Ġbar": 1218,
      "oth": 1219,
      "Ġthrow": 1220,
      "Ġatt": 1221,
      "Ġoutdo": 1222,
      "Ġmetal": 1223,
      "Ġcontroller": 1224,
      "art": 1225,
      "Ġthis": 1226,
      "Ġplant": 1227,
      "Ġtoward": 1228,
      "Ġsomething": 1229,
      "Ġpit": 1230,
      "Ġrock": 1231,
      "Ġzoo": 1232,
      "Ġdouble": 1233,
      "ial": 1234,
      "we": 1235,
      "Ġty": 1236,
      "Ġline": 1237,
      "Ġste": 1238,
      "Ġramp": 1239,
      "Ġsurround": 1240,
      "Ġshel": 1241,
      "Ġairport": 1242,
      "cher": 1243,
      "Ġor": 1244,
      "Ġhouse": 1245,
      "Ġskateboarder": 1246,
      "Ġslice": 1247,
      "Ġlots": 1248,
      "Ġpassenger": 1249,
      "Ġremote": 1250,
      "lic": 1251,
      "to": 1252,
      "Ġtile": 1253,
      "Ġsleep": 1254,
      "Ġlying": 1255,
      "Ġblank": 1256,
      "Ġphotogra": 1257,
      "ĠTHE": 1258,
      "Ġcheese": 1259,
      "Ġvarious": 1260,
      "ooking": 1261,
      "Ġsnowboard": 1262,
      "Ġcolored": 1263,
      "Ġshowing": 1264,
      "Ġitems": 1265,
      "Ġmouse": 1266,
      "est": 1267,
      "Ġumbrellas": 1268,
      "Ġhands": 1269,
      "Ġmale": 1270,
      "Ġsil": 1271,
      "arding": 1272,
      "Ġpost": 1273,
      "Ġsurrounded": 1274,
      "IT": 1275,
      "clo": 1276,
      "ĠM": 1277,
      "Ġbet": 1278,
      "Ġpur": 1279,
      "Ġgat": 1280,
      "raw": 1281,
      "AN": 1282,
      "Ġdough": 1283,
      "Ġshown": 1284,
      "Ġlook": 1285,
      "Ġsurfing": 1286,
      "ĠTV": 1287,
      "ĠFrisbee": 1288,
      "ĠIS": 1289,
      "ween": 1290,
      "Ġbetween": 1291,
      "Ġpile": 1292,
      "Ġce": 1293,
      "Ġres": 1294,
      "Ġcarrying": 1295,
      "Ġbridge": 1296,
      "Four": 1297,
      "br": 1298,
      "hic": 1299,
      "Ġstore": 1300,
      "Ġdoughn": 1301,
      "ty": 1302,
      "Ġway": 1303,
      "Ġmic": 1304,
      "Ġdark": 1305,
      "Ġgray": 1306,
      "Ġwindows": 1307,
      "Ġforest": 1308,
      "ĠL": 1309,
      "Ġpe": 1310,
      "Ġpan": 1311,
      "aning": 1312,
      "ron": 1313,
      "Ġmat": 1314,
      "Ġhair": 1315,
      "Ġjet": 1316,
      "Ġscen": 1317,
      "Ġbrush": 1318,
      "Ġenclo": 1319,
      "Ġcarrots": 1320,
      "AT": 1321,
      "ple": 1322,
      "Ġbran": 1323,
      "phone": 1324,
      "Ġjack": 1325,
      "Ġpainted": 1326,
      "Ġmonitor": 1327,
      "Ġlined": 1328,
      "Ġfla": 1329,
      "Ġgre": 1330,
      "uth": 1331,
      "Ġfork": 1332,
      "iform": 1333,
      "Ġrunway": 1334,
      "Ġuniform": 1335,
      "Ġdecorated": 1336,
      "Ġenclos": 1337,
      "oon": 1338,
      "Ġsal": 1339,
      "Ġmark": 1340,
      "ones": 1341,
      "Ġbedroom": 1342,
      "Ġstatue": 1343,
      "Ġtub": 1344,
      "Ġca": 1345,
      "iss": 1346,
      "Ġhalf": 1347,
      "Ġlady": 1348,
      "Ġgirls": 1349,
      "Ġsilver": 1350,
      "ny": 1351,
      "Ġmade": 1352,
      "Ġhel": 1353,
      "Ġoranges": 1354,
      "ife": 1355,
      "Ġmeter": 1356,
      "Many": 1357,
      "pes": 1358,
      "top": 1359,
      "ved": 1360,
      "Ġmult": 1361,
      "Ġno": 1362,
      "ases": 1363,
      "Ġdeck": 1364,
      "Ġvehic": 1365,
      "Ġmeal": 1366,
      "Ġpulling": 1367,
      "ect": 1368,
      "uce": 1369,
      "Ġpub": 1370,
      "Ġtoy": 1371,
      "Ġoffice": 1372,
      "Ġcabinets": 1373,
      "Ġphotograph": 1374,
      "oc": 1375,
      "ating": 1376,
      "aching": 1377,
      "eath": 1378,
      "Ġsleeping": 1379,
      "ale": 1380,
      "ash": 1381,
      "ffee": 1382,
      "ĠON": 1383,
      "Ġpreparing": 1384,
      "Ġscene": 1385,
      "gs": 1386,
      "Ġtri": 1387,
      "Ġpol": 1388,
      "Ġex": 1389,
      "Ġleaning": 1390,
      "Ġfew": 1391,
      "Ġpublic": 1392,
      "Ġed": 1393,
      "Ġob": 1394,
      "Ġnumb": 1395,
      "Ġcoffee": 1396,
      "Ġclou": 1397,
      "ime": 1398,
      "Ġdish": 1399,
      "Ġoutdoor": 1400,
      "ached": 1401,
      "ser": 1402,
      "Ġstri": 1403,
      "Ġstick": 1404,
      "Ġbeen": 1405,
      "Ġlake": 1406,
      "Ġbatter": 1407,
      "Ġhave": 1408,
      "Ġbread": 1409,
      "Ġenclosure": 1410,
      "Ġsalad": 1411,
      "len": 1412,
      "Ġho": 1413,
      "ows": 1414,
      "Ġcoming": 1415,
      "Ġwaves": 1416,
      "Ġwalls": 1417,
      "Ġmouth": 1418,
      "Ġcurb": 1419,
      "Ġbooks": 1420,
      "Ġattached": 1421,
      "Ġpurple": 1422,
      "Ġmicrow": 1423,
      "ft": 1424,
      "iz": 1425,
      "ken": 1426,
      "ĠH": 1427,
      "Ġmar": 1428,
      "Ġapples": 1429,
      "Ġgrey": 1430,
      "ble": 1431,
      "ping": 1432,
      "iture": 1433,
      "Ġfeat": 1434,
      "Ġmaking": 1435,
      "urniture": 1436,
      "Ġdining": 1437,
      "Ġknife": 1438,
      "Ġblanket": 1439,
      "Ġjacket": 1440,
      "int": 1441,
      "Ġcand": 1442,
      "arm": 1443,
      "Ġfurniture": 1444,
      "ond": 1445,
      "Ġrocks": 1446,
      "Ġbright": 1447,
      "Ġdisplayed": 1448,
      "Ġdonuts": 1449,
      "Ġrides": 1450,
      "Ġbranch": 1451,
      "LE": 1452,
      "Ġtrying": 1453,
      "Ġpa": 1454,
      "Ġpen": 1455,
      "Ġcook": 1456,
      "Ġincl": 1457,
      "Ġyard": 1458,
      "Ġcomputers": 1459,
      "Ġstopped": 1460,
      "Ġclear": 1461,
      "Ġsuitcase": 1462,
      "Ġedge": 1463,
      "Ġmicrowave": 1464,
      "man": 1465,
      "Ġ\"": 1466,
      "Ġwhe": 1467,
      "Ġonto": 1468,
      "Ġfri": 1469,
      "Ġtooth": 1470,
      "Ġlush": 1471,
      "oman": 1472,
      "Ġdock": 1473,
      "Ġshop": 1474,
      "Ġpictures": 1475,
      "Ġcount": 1476,
      "ĠD": 1477,
      "iti": 1478,
      "Ġseen": 1479,
      "Ġelect": 1480,
      "issors": 1481,
      "Ġnumber": 1482,
      "by": 1483,
      "ĠN": 1484,
      "inking": 1485,
      "ffiti": 1486,
      "Ġwalks": 1487,
      "Ġkids": 1488,
      "Ġmarket": 1489,
      "jo": 1490,
      "atoes": 1491,
      "oll": 1492,
      "Ġcomm": 1493,
      "Ġdire": 1494,
      "Ġenjo": 1495,
      "Ġslices": 1496,
      "Ġtowards": 1497,
      "Sm": 1498,
      "met": 1499,
      "ĠG": 1500,
      "Ġwire": 1501,
      "less": 1502,
      "ats": 1503,
      "ish": 1504,
      "els": 1505,
      "Ġplast": 1506,
      "Ġplaced": 1507,
      "Ġshort": 1508,
      "iple": 1509,
      "Ġappl": 1510,
      "Ġdrinking": 1511,
      "Ġcrossing": 1512,
      "Ġwork": 1513,
      "Ġcloudy": 1514,
      "THE": 1515,
      "ading": 1516,
      "day": 1517,
      "ĠIN": 1518,
      "Ġtv": 1519,
      "ance": 1520,
      "ley": 1521,
      "Ġfre": 1522,
      "Ġfour": 1523,
      "eth": 1524,
      "Ġscissors": 1525,
      "Ġolder": 1526,
      "Ġsurfboards": 1527,
      "Ġrefle": 1528,
      "ĠOF": 1529,
      "Ġclean": 1530,
      "Ġam": 1531,
      "Ġwed": 1532,
      "hered": 1533,
      "Ġgraffiti": 1534,
      "Ġteeth": 1535,
      "Ġperform": 1536,
      "Ġshelf": 1537,
      "ER": 1538,
      "ber": 1539,
      "old": 1540,
      "Ġreaching": 1541,
      "Ġbuses": 1542,
      "ures": 1543,
      "Ġboys": 1544,
      "Ġshows": 1545,
      "Ġadult": 1546,
      "Ġplastic": 1547,
      "Ġapplian": 1548,
      "Woman": 1549,
      "bor": 1550,
      "sp": 1551,
      "sit": 1552,
      "Ġsqu": 1553,
      "Ġmil": 1554,
      "ety": 1555,
      "ily": 1556,
      "Ġbase": 1557,
      "Ġhotel": 1558,
      "Ġperched": 1559,
      "aut": 1560,
      "de": 1561,
      "ary": 1562,
      "Ġgr": 1563,
      "Ġdry": 1564,
      "ally": 1565,
      "Ġcats": 1566,
      "Ġspoon": 1567,
      "Ġpieces": 1568,
      "dern": 1569,
      "Ġappliances": 1570,
      "St": 1571,
      "ming": 1572,
      "neath": 1573,
      "ric": 1574,
      "Ġwii": 1575,
      "Ġcooking": 1576,
      "Ġstack": 1577,
      "Ġequ": 1578,
      "Ġshore": 1579,
      "Ġlamp": 1580,
      "Ġpick": 1581,
      "Ġcart": 1582,
      "Ġride": 1583,
      "Ġdist": 1584,
      "Ġeaten": 1585,
      "Ġskiers": 1586,
      "pped": 1587,
      "Ġunderneath": 1588,
      "per": 1589,
      "Ġwet": 1590,
      "Ġcase": 1591,
      "Ġstone": 1592,
      "Ġnot": 1593,
      "chool": 1594,
      "Ġcatch": 1595,
      "Ġcatcher": 1596,
      "Ġsandy": 1597,
      "Ġplatform": 1598,
      "Ġworking": 1599,
      "Ġmonitors": 1600,
      "Ġleaves": 1601,
      "Ġdecker": 1602,
      "THERE": 1603,
      "Young": 1604,
      "ll": 1605,
      "Ġass": 1606,
      "Ġtime": 1607,
      "anes": 1608,
      "Ġgar": 1609,
      "Ġtom": 1610,
      "Ġbeaut": 1611,
      "Ġflat": 1612,
      "irth": 1613,
      "Ġswim": 1614,
      "ares": 1615,
      "Ġsunny": 1616,
      "Ġtypes": 1617,
      "Ġgathered": 1618,
      "Small": 1619,
      "ject": 1620,
      "ines": 1621,
      "Ġbirth": 1622,
      "olate": 1623,
      "Ġlap": 1624,
      "Ġlay": 1625,
      "ĠAN": 1626,
      "Ġcellphone": 1627,
      "Ġmodern": 1628,
      "Ġserve": 1629,
      "this": 1630,
      "three": 1631,
      "Ġtoothbr": 1632,
      "Ġcountry": 1633,
      "inal": 1634,
      "Ġbeer": 1635,
      "ents": 1636,
      "Ġspe": 1637,
      "ages": 1638,
      "iful": 1639,
      "Ġbikes": 1640,
      "Ġmountains": 1641,
      "Ġhaving": 1642,
      "Ġpath": 1643,
      "Ġthrowing": 1644,
      "ocolate": 1645,
      "Ġbirthday": 1646,
      "RO": 1647,
      "ix": 1648,
      "Ġur": 1649,
      "inten": 1650,
      "Ġtran": 1651,
      "Ġpill": 1652,
      "Ġfr": 1653,
      "oot": 1654,
      "ads": 1655,
      "Ġsho": 1656,
      "Ġshap": 1657,
      "Ġchocolate": 1658,
      "Ġwoods": 1659,
      "Ġtown": 1660,
      "Ġserving": 1661,
      "Ġclot": 1662,
      "Ġresting": 1663,
      "Ġbrushing": 1664,
      "intendo": 1665,
      "ear": 1666,
      "Ġsetting": 1667,
      "Ġwild": 1668,
      "Ġfac": 1669,
      "Ġstall": 1670,
      "Ġsomeone": 1671,
      "Ġsurface": 1672,
      "Ġpasture": 1673,
      "Ġeng": 1674,
      "ipment": 1675,
      "Ġdirection": 1676,
      "Ġequipment": 1677,
      "Ġbeautiful": 1678,
      "fter": 1679,
      "Ġschool": 1680,
      "hed": 1681,
      "Ġstraw": 1682,
      "Ġegg": 1683,
      "ames": 1684,
      "Ġcarri": 1685,
      "Ġothers": 1686,
      "ips": 1687,
      "Ġhelmet": 1688,
      "Ġenjoying": 1689,
      "Ġfridge": 1690,
      "ne": 1691,
      "sed": 1692,
      "Ġbut": 1693,
      "Ġland": 1694,
      "Ġflies": 1695,
      "Ġbask": 1696,
      "Ġteam": 1697,
      "Ġtrucks": 1698,
      "Ġflower": 1699,
      "Ġhitting": 1700,
      "Ġcurtain": 1701,
      "Ġplants": 1702,
      "Ġmatch": 1703,
      "ling": 1704,
      "male": 1705,
      "ĠE": 1706,
      "Ġafter": 1707,
      "Ġcre": 1708,
      "Ġey": 1709,
      "Ġpart": 1710,
      "Ġvan": 1711,
      "Ġfloating": 1712,
      "Ġbottles": 1713,
      "Ġflag": 1714,
      "Ġvehicles": 1715,
      "Ġwedding": 1716,
      "Ġassort": 1717,
      "iding": 1718,
      "rit": 1719,
      "the": 1720,
      "Ġfam": 1721,
      "ens": 1722,
      "Ġkind": 1723,
      "Ġright": 1724,
      "Ġjust": 1725,
      "Ġsee": 1726,
      "Ġdesser": 1727,
      "Ġbowls": 1728,
      "Ġmounted": 1729,
      "Ġsandwic": 1730,
      "Ġboth": 1731,
      "Someone": 1732,
      "Ġdoughnuts": 1733,
      "ronic": 1734,
      "Ġtoothbrush": 1735,
      "Large": 1736,
      "Ġtake": 1737,
      "Ġsing": 1738,
      "Ġbel": 1739,
      "Ġwhere": 1740,
      "Ġpep": 1741,
      "Ġnew": 1742,
      "ural": 1743,
      "Ġtables": 1744,
      "Ġshot": 1745,
      "Ġsmile": 1746,
      "Ġcattle": 1747,
      "Ġdesktop": 1748,
      "Ġsauce": 1749,
      "Ġsteel": 1750,
      "Ġobject": 1751,
      "Ġsandwiches": 1752,
      "wn": 1753,
      "reet": 1754,
      "roup": 1755,
      "Ġthey": 1756,
      "ise": 1757,
      "Ġhay": 1758,
      "Ġnice": 1759,
      "Ġrice": 1760,
      "Ġpizzas": 1761,
      "Ġsinks": 1762,
      "eeding": 1763,
      "Ġdirty": 1764,
      "Ġsail": 1765,
      "tered": 1766,
      "Ġpainting": 1767,
      "Ġelectronic": 1768,
      "Ġdistance": 1769,
      "Group": 1770,
      "ered": 1771,
      "hite": 1772,
      "sc": 1773,
      "self": 1774,
      "Ġsub": 1775,
      "Ġpad": 1776,
      "erc": 1777,
      "ery": 1778,
      "road": 1779,
      "ides": 1780,
      "Ġroll": 1781,
      "Ġpassing": 1782,
      "Ġboards": 1783,
      "Ġdev": 1784,
      "Ġend": 1785,
      "Ġarran": 1786,
      "Ġvariety": 1787,
      "Ġcontaining": 1788,
      "Ġdinner": 1789,
      "Ġdoughnut": 1790,
      "Ġmultiple": 1791,
      "Ġcandles": 1792,
      "Ġfrien": 1793,
      "Ġfresh": 1794,
      "Ġswimming": 1795,
      "aking": 1796,
      "act": 1797,
      "ged": 1798,
      "uck": 1799,
      "uge": 1800,
      "Ġsmo": 1801,
      "Ġwatches": 1802,
      "Ġlet": 1803,
      "Ġtakes": 1804,
      "Ġapple": 1805,
      "Ġfruits": 1806,
      "Ġcontainer": 1807,
      "Ġpitch": 1808,
      "Ġtiled": 1809,
      "Ġtricks": 1810,
      "Ġstriped": 1811,
      "ized": 1812,
      "Ġperforming": 1813,
      "Ġengine": 1814,
      "Ġcarriage": 1815,
      "Black": 1816,
      "ded": 1817,
      "Ġham": 1818,
      "Ġsty": 1819,
      "ram": 1820,
      "urch": 1821,
      "urry": 1822,
      "Ġwhich": 1823,
      "Ġchain": 1824,
      "Ġchick": 1825,
      "Ġposes": 1826,
      "Ġfemale": 1827,
      "Ġpolar": 1828,
      "lender": 1829,
      "Ġfamily": 1830,
      "AR": 1831,
      "Ġblo": 1832,
      "anc": 1833,
      "Ġmach": 1834,
      "Ġhuge": 1835,
      "Ġgear": 1836,
      "Ġstaring": 1837,
      "Ġtrail": 1838,
      "vert": 1839,
      "Ġshoes": 1840,
      "Ġchurch": 1841,
      "Ġsmart": 1842,
      "Ġphones": 1843,
      "Ġfoods": 1844,
      "Ġmother": 1845,
      "Ġtaken": 1846,
      "Ġsof": 1847,
      "Ġsoup": 1848,
      "Ġmoving": 1849,
      "Ġcute": 1850,
      "Ġboxes": 1851,
      "Ġguys": 1852,
      "Ġcontrollers": 1853,
      "Ġpitcher": 1854,
      "intage": 1855,
      "ĠAND": 1856,
      "Ġfacing": 1857,
      "Ġchicken": 1858,
      "OP": 1859,
      "ger": 1860,
      "io": 1861,
      "py": 1862,
      "run": 1863,
      "tub": 1864,
      "Ġqu": 1865,
      "Ġbal": 1866,
      "Ġput": 1867,
      "ather": 1868,
      "enter": 1869,
      "Ġdraw": 1870,
      "edest": 1871,
      "Ġcatching": 1872,
      "ioned": 1873,
      "Ġbathtub": 1874,
      "Ġbenches": 1875,
      "Ġtowel": 1876,
      "rist": 1877,
      "Ġart": 1878,
      "ĠCh": 1879,
      "Ġloc": 1880,
      "Ġpassengers": 1881,
      "Ġdonut": 1882,
      "Ġrailroad": 1883,
      "Ġcooked": 1884,
      "ĠNintendo": 1885,
      "Ġshaped": 1886,
      "Ġbasket": 1887,
      "OM": 1888,
      "go": 1889,
      "nic": 1890,
      "uding": 1891,
      "Ġself": 1892,
      "Ġwas": 1893,
      "Ġwrit": 1894,
      "Ġcenter": 1895,
      "Ġfries": 1896,
      "Ġfash": 1897,
      "Ġget": 1898,
      "Ġgames": 1899,
      "alm": 1900,
      "Ġstep": 1901,
      "Ġreading": 1902,
      "Ġvintage": 1903,
      "Ġwatch": 1904,
      "Ġpicnic": 1905,
      "Ġdeser": 1906,
      "Ġserved": 1907,
      "Ġbreak": 1908,
      "Ġcabinet": 1909,
      "Ġreflection": 1910,
      "Ġsquare": 1911,
      "Ġsingle": 1912,
      "cre": 1913,
      "dge": 1914,
      "ia": 1915,
      "out": 1916,
      "Ġtin": 1917,
      "Ġturn": 1918,
      "Ġbur": 1919,
      "Ġpack": 1920,
      "Ġport": 1921,
      "arrow": 1922,
      "Ġfeeding": 1923,
      "ident": 1924,
      "Ġneck": 1925,
      "Ġatop": 1926,
      "Ġext": 1927,
      "Ġfly": 1928,
      "Ġkitten": 1929,
      "Ġpose": 1930,
      "Ġseated": 1931,
      "ĠARE": 1932,
      "Ġfenced": 1933,
      "ĠST": 1934,
      "Ġpotatoes": 1935,
      "Ġsliced": 1936,
      "Ġsuitcases": 1937,
      "Ġgather": 1938,
      "Ġincluding": 1939,
      "Street": 1940,
      "ON": 1941,
      "oarding": 1942,
      "pings": 1943,
      "vent": 1944,
      "Ġ.": 1945,
      "ĠR": 1946,
      "Ġut": 1947,
      "Ġti": 1948,
      "Ġtrun": 1949,
      "Ġblender": 1950,
      "head": 1951,
      "Ġpr": 1952,
      "Ġpul": 1953,
      "ates": 1954,
      "Ġfo": 1955,
      "Ġhar": 1956,
      "Ġgold": 1957,
      "Ġroo": 1958,
      "Ġtoppings": 1959,
      "elling": 1960,
      "Ġpoin": 1961,
      "Ġpoles": 1962,
      "Ġleft": 1963,
      "place": 1964,
      "ations": 1965,
      "Ġdrives": 1966,
      "ĠWIT": 1967,
      "Ġrestroom": 1968,
      "Ġprepares": 1969,
      "Ġforeground": 1970,
      "Ġfeatures": 1971,
      "Ġstrawber": 1972,
      "Ġpulled": 1973,
      "ĠWITH": 1974,
      "ban": 1975,
      "ious": 1976,
      "mas": 1977,
      "people": 1978,
      "tom": 1979,
      "ual": 1980,
      "uches": 1981,
      "vers": 1982,
      "wing": 1983,
      "Ġi": 1984,
      "Ġbite": 1985,
      "Ġcr": 1986,
      "Ġfoot": 1987,
      "Ġmess": 1988,
      "Ġgood": 1989,
      "unch": 1990,
      "ical": 1991,
      "Ġplace": 1992,
      "Ġplays": 1993,
      "Ġskateboarding": 1994,
      "Ġfireplace": 1995,
      "Ġkne": 1996,
      "Ġdrinks": 1997,
      "Ġsticking": 1998,
      "Ġdocked": 1999,
      "Ġshorts": 2000,
      "Ġdessert": 2001,
      "Ġbelow": 2002,
      "crete": 2003,
      "AL": 2004,
      "Clo": 2005,
      "DING": 2006,
      "IR": 2007,
      "White": 2008,
      "fe": 2009,
      "light": 2010,
      "ward": 2011,
      "ins": 2012,
      "iness": 2013,
      "Ġpee": 2014,
      "Ġcra": 2015,
      "ato": 2016,
      "Ġinter": 2017,
      "Ġfree": 2018,
      "Ġdel": 2019,
      "Ġdoll": 2020,
      "Ġlow": 2021,
      "Ġlid": 2022,
      "Ġstain": 2023,
      "Ġstair": 2024,
      "ass": 2025,
      "aseball": 2026,
      "ige": 2027,
      "Ġatte": 2028,
      "Ġevent": 2029,
      "Ġkick": 2030,
      "ults": 2031,
      "Ġnearby": 2032,
      "Ġconcrete": 2033,
      "ape": 2034,
      "Ġcolors": 2035,
      "Ġbottom": 2036,
      "Ġcheck": 2037,
      "Ġtype": 2038,
      "Ġvehicle": 2039,
      "Ġsofa": 2040,
      "Ġdrawn": 2041,
      "edestri": 2042,
      "ristmas": 2043,
      "Ġroof": 2044,
      "Cat": 2045,
      "Men": 2046,
      "Tra": 2047,
      "ddle": 2048,
      "Ġ1": 2049,
      "Ġaway": 2050,
      "Ġsame": 2051,
      "Ġwets": 2052,
      "Ġindo": 2053,
      "ist": 2054,
      "Ġtoddle": 2055,
      "owing": 2056,
      "Ġreads": 2057,
      "ional": 2058,
      "Ġtrains": 2059,
      "Ġbusiness": 2060,
      "Ġoutf": 2061,
      "Ġsurfers": 2062,
      "Ġwooded": 2063,
      "Ġgiant": 2064,
      "Ġledge": 2065,
      "Ġspace": 2066,
      "Ġmakes": 2067,
      "Ġhotdo": 2068,
      "Ġsale": 2069,
      "Ġhapp": 2070,
      "Ġpastry": 2071,
      "Ġhighway": 2072,
      "Ġcarrot": 2073,
      "Ġcakes": 2074,
      "Ġsubway": 2075,
      "Ġdesert": 2076,
      "Ġwetsuit": 2077,
      "Ġtoddler": 2078,
      "EN": 2079,
      "mon": 2080,
      "os": 2081,
      "que": 2082,
      "set": 2083,
      "sting": 2084,
      "iner": 2085,
      "Ġter": 2086,
      "Ġbak": 2087,
      "anding": 2088,
      "Ġcage": 2089,
      "laz": 2090,
      "ely": 2091,
      "uter": 2092,
      "Ġbever": 2093,
      "Ġcover": 2094,
      "Ġcouches": 2095,
      "Ġplanes": 2096,
      "Ġrace": 2097,
      "stru": 2098,
      "pture": 2099,
      "Ġdisc": 2100,
      "boarding": 2101,
      "Ġvegg": 2102,
      "ĠSt": 2103,
      "Ġbroken": 2104,
      "Ġarm": 2105,
      "Ġcups": 2106,
      "Ġorn": 2107,
      "Ġinclud": 2108,
      "Ġtransit": 2109,
      "Ġcream": 2110,
      "ercial": 2111,
      "Ġarranged": 2112,
      "Ġfriends": 2113,
      "Ġstyle": 2114,
      "Baseball": 2115,
      "CK": 2116,
      "Ch": 2117,
      "LA": 2118,
      "Person": 2119,
      "Zebra": 2120,
      "bb": 2121,
      "ball": 2122,
      "case": 2123,
      "ears": 2124,
      "sian": 2125,
      "uc": 2126,
      "Ġwell": 2127,
      "Ġpow": 2128,
      "Ġcig": 2129,
      "rop": 2130,
      "Ġmust": 2131,
      "Ġnet": 2132,
      "Ġnarrow": 2133,
      "Ġbeans": 2134,
      "ants": 2135,
      "Ġvases": 2136,
      "Ġform": 2137,
      "Ġflock": 2138,
      "Ġadvert": 2139,
      "Ġcement": 2140,
      "Ġwheel": 2141,
      "Ġmilk": 2142,
      "Ġstacked": 2143,
      "IS": 2144,
      "aches": 2145,
      "fess": 2146,
      "fast": 2147,
      "land": 2148,
      "ng": 2149,
      "ns": 2150,
      "Ġump": 2151,
      "Ġopp": 2152,
      "Ġpool": 2153,
      "read": 2154,
      "Ġclass": 2155,
      "Ġfa": 2156,
      "Ġfarm": 2157,
      "lax": 2158,
      "uttered": 2159,
      "icing": 2160,
      "Ġrelax": 2161,
      "Ġtrash": 2162,
      "Ġhold": 2163,
      "ions": 2164,
      "Ġbushes": 2165,
      "Ġsea": 2166,
      "Ġoverl": 2167,
      "Ġheads": 2168,
      "Ġfeed": 2169,
      "Ġcontainers": 2170,
      "artment": 2171,
      "Ġuniforms": 2172,
      "Ġcommercial": 2173,
      "Ġeggs": 2174,
      "Ġblock": 2175,
      "Ġstainless": 2176,
      "Bo": 2177,
      "ared": 2178,
      "ired": 2179,
      "mo": 2180,
      "made": 2181,
      "ned": 2182,
      "po": 2183,
      "tty": 2184,
      "ys": 2185,
      "ycl": 2186,
      "Ġtrol": 2187,
      "ering": 2188,
      "Ġfish": 2189,
      "Ġtour": 2190,
      "usk": 2191,
      "Ġround": 2192,
      "Ġdoes": 2193,
      "Ġparty": 2194,
      "stum": 2195,
      "phones": 2196,
      "Ġje": 2197,
      "Ġclocks": 2198,
      "Ġscul": 2199,
      "ĠTH": 2200,
      "Ġpretty": 2201,
      "Ġjumps": 2202,
      "Ġleaf": 2203,
      "Ġhimself": 2204,
      "Ġceiling": 2205,
      "Ġamong": 2206,
      "Ġtomato": 2207,
      "Ġpillows": 2208,
      "Ġdirections": 2209,
      "Ġsmiles": 2210,
      "Ġsteps": 2211,
      "Ġveggies": 2212,
      "Ġumpire": 2213,
      "AS": 2214,
      "One": 2215,
      "View": 2216,
      "so": 2217,
      "ĠV": 2218,
      "Ġice": 2219,
      "Ġap": 2220,
      "Ġtarm": 2221,
      "Ġbull": 2222,
      "Ġpalm": 2223,
      "let": 2224,
      "Ġfun": 2225,
      "Ġfram": 2226,
      "Ġglo": 2227,
      "als": 2228,
      "ork": 2229,
      "ooter": 2230,
      "eling": 2231,
      "Ġcoat": 2232,
      "Ġcostum": 2233,
      "Ġchop": 2234,
      "ighting": 2235,
      "Ġcompet": 2236,
      "Ġdesign": 2237,
      "Ġskies": 2238,
      "pping": 2239,
      "Ġscooter": 2240,
      "Ġphotos": 2241,
      "Ġswings": 2242,
      "Ġpastries": 2243,
      "Ġcupc": 2244,
      "Ġcluttered": 2245,
      "Ġcrowded": 2246,
      "Ġbicycles": 2247,
      "Ġremotes": 2248,
      "Ġrider": 2249,
      "Ġoutdoors": 2250,
      "Ġtomatoes": 2251,
      "Ġurinal": 2252,
      "Ġclothing": 2253,
      "ancy": 2254,
      "Ġfashioned": 2255,
      "Ġtarmac": 2256,
      "Ad": 2257,
      "Sk": 2258,
      "Vari": 2259,
      "bs": 2260,
      "ier": 2261,
      "ira": 2262,
      "ique": 2263,
      "mer": 2264,
      "tte": 2265,
      "yard": 2266,
      "ĠK": 2267,
      "ĠU": 2268,
      "Ġsay": 2269,
      "Ġsill": 2270,
      "Ġwide": 2271,
      "Ġpedestri": 2272,
      "ising": 2273,
      "ists": 2274,
      "Ġhood": 2275,
      "Ġhous": 2276,
      "Ġgard": 2277,
      "Ġglaz": 2278,
      "Ġtoas": 2279,
      "Ġstool": 2280,
      "Ġwhat": 2281,
      "ican": 2282,
      "olored": 2283,
      "Ġear": 2284,
      "Ġret": 2285,
      "Ġdoors": 2286,
      "iler": 2287,
      "Ġshin": 2288,
      "Ġsnowboarding": 2289,
      "Ġlies": 2290,
      "Ġjo": 2291,
      "Ġoverhead": 2292,
      "Ġdishes": 2293,
      "Ġalone": 2294,
      "Ġdisplaying": 2295,
      "Ġdrive": 2296,
      "Ġappears": 2297,
      "Ġarms": 2298,
      "Ġused": 2299,
      "Ġprofess": 2300,
      "Ġvanity": 2301,
      "Ġpepper": 2302,
      "Ġmachine": 2303,
      "Ġselfie": 2304,
      "Ġharbor": 2305,
      "Ġoutfit": 2306,
      "Ġcigare": 2307,
      "Ġsculpture": 2308,
      "Hor": 2309,
      "KING": 2310,
      "da": 2311,
      "di": 2312,
      "em": 2313,
      "iff": 2314,
      "ially": 2315,
      "liner": 2316,
      "pet": 2317,
      "Ġent": 2318,
      "ini": 2319,
      "Ġpup": 2320,
      "Ġpetting": 2321,
      "Ġfoll": 2322,
      "Ġmix": 2323,
      "Ġgl": 2324,
      "Ġtouch": 2325,
      "allen": 2326,
      "ract": 2327,
      "ckey": 2328,
      "ils": 2329,
      "Ġthings": 2330,
      "Ġboarding": 2331,
      "Ġstreets": 2332,
      "Ġupside": 2333,
      "Ġblurry": 2334,
      "Ġju": 2335,
      "Ġleash": 2336,
      "Ġlaptops": 2337,
      "Ġcolle": 2338,
      "Ġfeet": 2339,
      "usty": 2340,
      "Ġadults": 2341,
      "Ġbags": 2342,
      "Ġrocky": 2343,
      "Ġshelves": 2344,
      "ITT": 2345,
      "Ġmulti": 2346,
      "Ġurban": 2347,
      "Ġdevice": 2348,
      "ĠChristmas": 2349,
      "Ġbreakfast": 2350,
      "idential": 2351,
      "Ġstrawberries": 2352,
      "Ġhotdog": 2353,
      "Ġmustard": 2354,
      "Ġtrolley": 2355,
      "Ġgarden": 2356,
      "Bl": 2357,
      "ED": 2358,
      "ES": 2359,
      "ET": 2360,
      "EOP": 2361,
      "Pl": 2362,
      "co": 2363,
      "ef": 2364,
      "ib": 2365,
      "icks": 2366,
      "ness": 2367,
      "Ġ2": 2368,
      "inter": 2369,
      "iting": 2370,
      "itary": 2371,
      "Ġcro": 2372,
      "Ġfig": 2373,
      "Ġmake": 2374,
      "Ġgets": 2375,
      "Ġlunch": 2376,
      "eds": 2377,
      "oni": 2378,
      "ory": 2379,
      "aded": 2380,
      "Ġplain": 2381,
      "Ġyo": 2382,
      "Ġvis": 2383,
      "Ġrailing": 2384,
      "Ġcomf": 2385,
      "Ġrural": 2386,
      "Ġposit": 2387,
      "Ġgreens": 2388,
      "Ġbeds": 2389,
      "Ġskateboards": 2390,
      "lasses": 2391,
      "ĠAsian": 2392,
      "Ġspot": 2393,
      "Ġbride": 2394,
      "Ġitself": 2395,
      "Ġappro": 2396,
      "Ġgoats": 2397,
      "rench": 2398,
      "mpting": 2399,
      "Ġhats": 2400,
      "Ġcloth": 2401,
      "avement": 2402,
      "Ġsteep": 2403,
      "Ġblankets": 2404,
      "Ġresidential": 2405,
      "Ġcommuter": 2406,
      "Ġwires": 2407,
      "Ġclothes": 2408,
      "Ġeyes": 2409,
      "Ġassorted": 2410,
      "Ġassortment": 2411,
      "Ġsmoking": 2412,
      "Ġtied": 2413,
      "Ġtrunk": 2414,
      "Ġattempting": 2415,
      "struction": 2416,
      "ĠTHAT": 2417,
      "Ġhouses": 2418,
      "EOPLE": 2419,
      "IC": 2420,
      "be": 2421,
      "glasses": 2422,
      "line": 2423,
      "pl": 2424,
      "vy": 2425,
      "Ġaction": 2426,
      "Ġtw": 2427,
      "Ġtan": 2428,
      "Ġsy": 2429,
      "Ġpants": 2430,
      "Ġpavement": 2431,
      "Ġcir": 2432,
      "ative": 2433,
      "Ġfancy": 2434,
      "Ġfallen": 2435,
      "Ġlone": 2436,
      "Ġstill": 2437,
      "cked": 2438,
      "Ġnap": 2439,
      "ices": 2440,
      "usted": 2441,
      "Ġskirt": 2442,
      "Ġship": 2443,
      "Ġshade": 2444,
      "key": 2445,
      "sted": 2446,
      "Ġrug": 2447,
      "cture": 2448,
      "Ġlegs": 2449,
      "Ġsliding": 2450,
      "Ġboarder": 2451,
      "Ġsaus": 2452,
      "Ġprod": 2453,
      "Ġracing": 2454,
      "Ġwalkway": 2455,
      "ĠMAN": 2456,
      "Ġpolice": 2457,
      "Ġcandle": 2458,
      "Ġpaw": 2459,
      "Ġshopping": 2460,
      "Ġelectric": 2461,
      "Ġlays": 2462,
      "Ġlett": 2463,
      "Ġkneeling": 2464,
      "Close": 2465,
      "Ġfreez": 2466,
      "Ġhappy": 2467,
      "Ġincludes": 2468,
      "Ġoverlooking": 2469,
      "Various": 2470,
      "Ġsays": 2471,
      "Ġprofessional": 2472,
      "Ġcigarette": 2473,
      "..": 2474,
      "Gira": 2475,
      "Mult": 2476,
      "OR": 2477,
      "ield": 2478,
      "ible": 2479,
      "pack": 2480,
      "ring": 2481,
      "rink": 2482,
      "Ġacc": 2483,
      "Ġsides": 2484,
      "ital": 2485,
      "Ġcap": 2486,
      "erly": 2487,
      "Ġthere": 2488,
      "ised": 2489,
      "Ġmed": 2490,
      "Ġhall": 2491,
      "Ġhard": 2492,
      "Ġgate": 2493,
      "Ġdra": 2494,
      "Ġlad": 2495,
      "aller": 2496,
      "Ġstru": 2497,
      "ons": 2498,
      "ony": 2499,
      "lage": 2500,
      "ung": 2501,
      "unding": 2502,
      "Ġtrailer": 2503,
      "Ġstream": 2504,
      "Ġfrosting": 2505,
      "Ġgroom": 2506,
      "Ġsmaller": 2507,
      "ular": 2508,
      "imb": 2509,
      "Ġbeneath": 2510,
      "Ġheld": 2511,
      "Ġeats": 2512,
      "Ġsheets": 2513,
      "Ġopening": 2514,
      "Ġfloors": 2515,
      "Ġruns": 2516,
      "Ġbik": 2517,
      "Ġpasta": 2518,
      "Ġprop": 2519,
      "Ġdecorations": 2520,
      "Ġprepared": 2521,
      "Ġsnowboarder": 2522,
      "Ġfeaturing": 2523,
      "many": 2524,
      "Ġpillow": 2525,
      "Ġshoul": 2526,
      "scape": 2527,
      "Ġutens": 2528,
      "Ġornate": 2529,
      "Child": 2530,
      "Ġframe": 2531,
      "Ġcostume": 2532,
      "Ġglazed": 2533,
      "Ġpuppy": 2534,
      "Ġtouching": 2535,
      "Co": 2536,
      "Cars": 2537,
      "OW": 2538,
      "az": 2539,
      "app": 2540,
      "bage": 2541,
      "ees": 2542,
      "ium": 2543,
      "vid": 2544,
      "inis": 2545,
      "Ġtur": 2546,
      "Ġwra": 2547,
      "Ġcas": 2548,
      "Ġcard": 2549,
      "Ġcub": 2550,
      "Ġfrench": 2551,
      "Ġant": 2552,
      "Ġmis": 2553,
      "Ġstun": 2554,
      "Ġisland": 2555,
      "Ġnood": 2556,
      "urf": 2557,
      "ute": 2558,
      "use": 2559,
      "Ġrear": 2560,
      "adow": 2561,
      "Ġflip": 2562,
      "Ġposed": 2563,
      "cted": 2564,
      "Ġbackpack": 2565,
      "Ġbending": 2566,
      "Ġleans": 2567,
      "Ġspra": 2568,
      "Ġsoda": 2569,
      "Ġmeters": 2570,
      "Ġrests": 2571,
      "Ġhillside": 2572,
      "Ġcurled": 2573,
      "Ġwaits": 2574,
      "shirt": 2575,
      "Ġdecorative": 2576,
      "Ġcontains": 2577,
      "ĠPEOPLE": 2578,
      "Ġpartially": 2579,
      "Ġwriting": 2580,
      "Ġtiny": 2581,
      "Ġportra": 2582,
      "Ġindoor": 2583,
      "Zebras": 2584,
      "Ġjuice": 2585,
      "EL": 2586,
      "In": 2587,
      "OT": 2588,
      "UN": 2589,
      "YING": 2590,
      "bile": 2591,
      "cting": 2592,
      "dd": 2593,
      "minal": 2594,
      "Ġpine": 2595,
      "Ġpract": 2596,
      "ange": 2597,
      "erial": 2598,
      "Ġinst": 2599,
      "Ġfall": 2600,
      "Ġfrisb": 2601,
      "Ġmap": 2602,
      "Ġmag": 2603,
      "end": 2604,
      "Ġdep": 2605,
      "lay": 2606,
      "ird": 2607,
      "Ġneat": 2608,
      "Ġneigh": 2609,
      "Ġbeard": 2610,
      "Ġbeige": 2611,
      "hers": 2612,
      "Ġlawn": 2613,
      "Ġclosed": 2614,
      "ster": 2615,
      "ption": 2616,
      "Ġlemon": 2617,
      "Ġsport": 2618,
      "Ġrackets": 2619,
      "Ġsunset": 2620,
      "lers": 2621,
      "Ġpapers": 2622,
      "Ġscreens": 2623,
      "Ġpatter": 2624,
      "Ġposted": 2625,
      "Ġcele": 2626,
      "Ġwheels": 2627,
      "Ġkinds": 2628,
      "Ġputting": 2629,
      "Ġpointing": 2630,
      "Ġmessy": 2631,
      "Ġdeli": 2632,
      "Ġstairs": 2633,
      "Ġkicking": 2634,
      "osite": 2635,
      "Ġterminal": 2636,
      "Ġopposite": 2637,
      "Ġstructure": 2638,
      "Ġnoodles": 2639,
      "Ġportrait": 2640,
      "Five": 2641,
      "ID": 2642,
      "UT": 2643,
      "acle": 2644,
      "akes": 2645,
      "bed": 2646,
      "gon": 2647,
      "me": 2648,
      "nel": 2649,
      "Ġeld": 2650,
      "Ġties": 2651,
      "Ġselling": 2652,
      "Ġpans": 2653,
      "Ġpond": 2654,
      "Ġcalf": 2655,
      "Ġonions": 2656,
      "Ġfake": 2657,
      "Ġmug": 2658,
      "ence": 2659,
      "Ġgas": 2660,
      "Ġtong": 2661,
      "ried": 2662,
      "Ġrope": 2663,
      "Ġstret": 2664,
      "Ġgrowing": 2665,
      "Ġlaugh": 2666,
      "Ġcarpet": 2667,
      "Ġbuck": 2668,
      "Ġsignal": 2669,
      "Ġrusted": 2670,
      "Ġpouring": 2671,
      "Ġballoon": 2672,
      "Ġroadway": 2673,
      "Ġtowels": 2674,
      "Ġconstruction": 2675,
      "Ġpasses": 2676,
      "ĠAmer": 2677,
      "Ġasleep": 2678,
      "Ġsprink": 2679,
      "Ġcourse": 2680,
      "Ġtea": 2681,
      "Ġteen": 2682,
      "Ġsweat": 2683,
      "Ġenter": 2684,
      "Ġmoon": 2685,
      "ooked": 2686,
      "Ġgraze": 2687,
      "Ġsunglasses": 2688,
      "Ġcrosswalk": 2689,
      "Ġpatio": 2690,
      "Ġriders": 2691,
      "Ġrows": 2692,
      "Ġthrows": 2693,
      "Ġhole": 2694,
      "Ġbrightly": 2695,
      "Ġfried": 2696,
      "Ġtransp": 2697,
      "Ġeye": 2698,
      "Ġsmoke": 2699,
      "Ġturned": 2700,
      "ĠSTAN": 2701,
      "Ġgathering": 2702,
      "Traffic": 2703,
      "Ġcupcake": 2704,
      "Ġcollection": 2705,
      "Ġlettuce": 2706,
      "Ġfreezer": 2707,
      "Ġneighbor": 2708,
      "Ġtongue": 2709,
      "CH": 2710,
      "Com": 2711,
      "Ele": 2712,
      "bow": 2713,
      "ere": 2714,
      "hood": 2715,
      "hill": 2716,
      "li": 2717,
      "low": 2718,
      "ps": 2719,
      "tor": 2720,
      "ucks": 2721,
      "Ġaud": 2722,
      "Ġsup": 2723,
      "itat": 2724,
      "hel": 2725,
      "Ġcal": 2726,
      "rounding": 2727,
      "Ġfing": 2728,
      "Ġfer": 2729,
      "Ġhow": 2730,
      "Ġhab": 2731,
      "Ġstares": 2732,
      "allow": 2733,
      "ushes": 2734,
      "Ġfrosted": 2735,
      "Ġtent": 2736,
      "umer": 2737,
      "Ġsurrounding": 2738,
      "Ġwatering": 2739,
      "Ġring": 2740,
      "Ġliqu": 2741,
      "Ġlife": 2742,
      "Ġhandle": 2743,
      "aper": 2744,
      "Ġopened": 2745,
      "Ġmound": 2746,
      "ague": 2747,
      "Ġoffic": 2748,
      "Ġdisplays": 2749,
      "ĠSITT": 2750,
      "Ġgoat": 2751,
      "Ġalongside": 2752,
      "Ġairplanes": 2753,
      "ĠBO": 2754,
      "Ġimages": 2755,
      "Ġhaired": 2756,
      "cess": 2757,
      "Ġtravels": 2758,
      "Ġlog": 2759,
      "Ġpots": 2760,
      "Ġpotted": 2761,
      "asty": 2762,
      "Ġphotograp": 2763,
      "Ġpiled": 2764,
      "Ġtoys": 2765,
      "Ġmarried": 2766,
      "Ġmilitary": 2767,
      "Ġpickup": 2768,
      "Ġspeed": 2769,
      "Ġpaddle": 2770,
      "Ġdevices": 2771,
      "Ġlocated": 2772,
      "Ġleafy": 2773,
      "Ġapartment": 2774,
      "Ġcompetit": 2775,
      "Ġtoaster": 2776,
      "Ġpepperoni": 2777,
      "divid": 2778,
      "Multiple": 2779,
      "Ġutensils": 2780,
      "Ġhabitat": 2781,
      "AB": 2782,
      "Cows": 2783,
      "GE": 2784,
      "OO": 2785,
      "Ph": 2786,
      "ail": 2787,
      "pers": 2788,
      "uched": 2789,
      "val": 2790,
      "Ġif": 2791,
      "Ġicing": 2792,
      "Ġsort": 2793,
      "Ġbare": 2794,
      "Ġpet": 2795,
      "Ġcoo": 2796,
      "Ġfan": 2797,
      "Ġfil": 2798,
      "Ġdig": 2799,
      "Ġsticks": 2800,
      "orn": 2801,
      "ility": 2802,
      "Ġthick": 2803,
      "Ġbef": 2804,
      "Ġplaid": 2805,
      "Ġket": 2806,
      "Ġpara": 2807,
      "Ġparas": 2808,
      "Ġchips": 2809,
      "Ġpersons": 2810,
      "Ġpipe": 2811,
      "Ġvol": 2812,
      "stacle": 2813,
      "Ġsniff": 2814,
      "Ġblond": 2815,
      "range": 2816,
      "Ġgiving": 2817,
      "Ġskating": 2818,
      "Ġballs": 2819,
      "Ġleather": 2820,
      "Ġtoilets": 2821,
      "ently": 2822,
      "Ġcond": 2823,
      "Ġcones": 2824,
      "ully": 2825,
      "Ġcoll": 2826,
      "Ġmobile": 2827,
      "Ġheadphones": 2828,
      "Ġmirrors": 2829,
      "ĠBig": 2830,
      "Ġhits": 2831,
      "Ġpatch": 2832,
      "udd": 2833,
      "Ġhomemade": 2834,
      "Ġboots": 2835,
      "Ġtiles": 2836,
      "Ġbranches": 2837,
      "Ġobstacle": 2838,
      "Ġgrill": 2839,
      "Ġgarage": 2840,
      "Ġshoe": 2841,
      "Ġbutter": 2842,
      "isement": 2843,
      "Ġbaked": 2844,
      "Ġbeverage": 2845,
      "Ġrelaxing": 2846,
      "Ġfeeder": 2847,
      "Ġglove": 2848,
      "Ġpedestrians": 2849,
      "Ġstools": 2850,
      "Ġreturn": 2851,
      "Horses": 2852,
      "Ġsausage": 2853,
      "Children": 2854,
      "Ġmissing": 2855,
      "Ġelderly": 2856,
      "ĠAmerican": 2857,
      "Ġtransport": 2858,
      "Ġneighborhood": 2859,
      "dividual": 2860,
      "Old": 2861,
      "Red": 2862,
      "UR": 2863,
      "cing": 2864,
      "izz": 2865,
      "ience": 2866,
      "og": 2867,
      "uy": 2868,
      "wood": 2869,
      "ware": 2870,
      "Ġtun": 2871,
      "Ġtul": 2872,
      "Ġtire": 2873,
      "Ġtries": 2874,
      "Ġtasty": 2875,
      "Ġodd": 2876,
      "Ġbell": 2877,
      "Ġbill": 2878,
      "anan": 2879,
      "Ġonly": 2880,
      "Ġfar": 2881,
      "Ġfur": 2882,
      "Ġfight": 2883,
      "Ġang": 2884,
      "Ġmop": 2885,
      "ending": 2886,
      "Ġtoast": 2887,
      "Ġlighting": 2888,
      "Ġstra": 2889,
      "icious": 2890,
      "abby": 2891,
      "Ġholder": 2892,
      "Ġshallow": 2893,
      "Ġpier": 2894,
      "umin": 2895,
      "Ġdownhill": 2896,
      "Ġvend": 2897,
      "Ġripe": 2898,
      "Ġbush": 2899,
      "stem": 2900,
      "Ġrusty": 2901,
      "Ġlift": 2902,
      "Ġsec": 2903,
      "Ġsection": 2904,
      "Ġbackyard": 2905,
      "ught": 2906,
      "Ġleague": 2907,
      "Ġhea": 2908,
      "Ġsheet": 2909,
      "Ġstoplight": 2910,
      "Ġspread": 2911,
      "Ġcollage": 2912,
      "ĠTO": 2913,
      "Ġbunches": 2914,
      "Ġmod": 2915,
      "ushing": 2916,
      "ĠSK": 2917,
      "Ġplatter": 2918,
      "Ġuse": 2919,
      "Ġhangs": 2920,
      "Ġclimb": 2921,
      "Ġloaded": 2922,
      "Ġdoorway": 2923,
      "Ġwhole": 2924,
      "Ġpaint": 2925,
      "akers": 2926,
      "ĠPH": 2927,
      "Ġbookcase": 2928,
      "Ġrainy": 2929,
      "Ġrainbow": 2930,
      "Ġpulls": 2931,
      "Ġbarn": 2932,
      "Ġflags": 2933,
      "Ġnose": 2934,
      "Ġbookshel": 2935,
      "Ġfreight": 2936,
      "Ġgrilled": 2937,
      "Ġdryer": 2938,
      "Ġbutt": 2939,
      "Ġlandscape": 2940,
      "Ġteams": 2941,
      "Ġobjects": 2942,
      "Ġpeeled": 2943,
      "Ġinteract": 2944,
      "Ġbeverages": 2945,
      "Ġadvertising": 2946,
      "Ġadvertisement": 2947,
      "yclist": 2948,
      "Ġurinals": 2949,
      "Ġshining": 2950,
      "Ġjockey": 2951,
      "Ġmixed": 2952,
      "Ġcirc": 2953,
      "Closeup": 2954,
      "Ġshoulder": 2955,
      "Ġpineapp": 2956,
      "Ġneatly": 2957,
      "ĠSTANDING": 2958,
      "ĠSITTING": 2959,
      "ABLE": 2960,
      "Ġbefore": 2961,
      "Banan": 2962,
      "Girl": 2963,
      "Kit": 2964,
      "bur": 2965,
      "bble": 2966,
      "com": 2967,
      "house": 2968,
      "hib": 2969,
      "ients": 2970,
      "lit": 2971,
      "ma": 2972,
      "mb": 2973,
      "nect": 2974,
      "oe": 2975,
      "uct": 2976,
      "Ġsad": 2977,
      "Ġsim": 2978,
      "Ġsiz": 2979,
      "Ġsized": 2980,
      "ingred": 2981,
      "Ġbay": 2982,
      "Ġwar": 2983,
      "Ġpige": 2984,
      "ront": 2985,
      "rophone": 2986,
      "Ġmini": 2987,
      "Ġwithout": 2988,
      "ennis": 2989,
      "Ġgen": 2990,
      "Ġdump": 2991,
      "Ġlane": 2992,
      "Ġlanding": 2993,
      "rain": 2994,
      "oral": 2995,
      "orter": 2996,
      "Ġnumer": 2997,
      "Ġneon": 2998,
      "rier": 2999,
      "Ġrece": 3000,
      "Ġreaches": 3001,
      "Ġshru": 3002,
      "Ġshaking": 3003,
      "aming": 3004,
      "Ġbats": 3005,
      "ount": 3006,
      "Ġflown": 3007,
      "Ġbuff": 3008,
      "stly": 3009,
      "Ġsnack": 3010,
      "Ġrange": 3011,
      "Ġbacks": 3012,
      "Ġwagon": 3013,
      "Ġleg": 3014,
      "Ġdispen": 3015,
      "Ġcons": 3016,
      "Ġconnect": 3017,
      "Ġalso": 3018,
      "ĠAT": 3019,
      "boy": 3020,
      "ĠTR": 3021,
      "Ġsoap": 3022,
      "ushroom": 3023,
      "Ġshirts": 3024,
      "Ġcuts": 3025,
      "Ġtowering": 3026,
      "Ġpres": 3027,
      "ĠBen": 3028,
      "Ġarrow": 3029,
      "Ġchees": 3030,
      "Ġclown": 3031,
      "ustom": 3032,
      "ggy": 3033,
      "Ġlines": 3034,
      "Ġseats": 3035,
      "Ġmicrophone": 3036,
      "ĠLA": 3037,
      "Ġjetliner": 3038,
      "Ġjackets": 3039,
      "Ġperforms": 3040,
      "Ġnoteb": 3041,
      "Ġgarnis": 3042,
      "Ġgarbage": 3043,
      "ROOM": 3044,
      "Ġcurtains": 3045,
      "Ġnewly": 3046,
      "Ġelectronics": 3047,
      "Ġiron": 3048,
      "Ġcrust": 3049,
      "Ġgoods": 3050,
      "ucet": 3051,
      "Ġpower": 3052,
      "Ġfaucet": 3053,
      "Ġchopped": 3054,
      "Blue": 3055,
      "Ġsystem": 3056,
      "Ġproduce": 3057,
      "Giraffes": 3058,
      "Ġpropel": 3059,
      "Ġstunt": 3060,
      "Ġfalling": 3061,
      "Ġsports": 3062,
      "Ġcelebr": 3063,
      "Ġsprinkles": 3064,
      "Ġofficer": 3065,
      "Ġvolley": 3066,
      "Ġcollar": 3067,
      "Ġtulips": 3068,
      "ingredients": 3069,
      "Ġconnected": 3070,
      "Bat": 3071,
      "Food": 3072,
      "IG": 3073,
      "Looking": 3074,
      "Surf": 3075,
      "colored": 3076,
      "fully": 3077,
      "ging": 3078,
      "ior": 3079,
      "iers": 3080,
      "iving": 3081,
      "kin": 3082,
      "lish": 3083,
      "na": 3084,
      "pass": 3085,
      "ral": 3086,
      "ues": 3087,
      "work": 3088,
      "zen": 3089,
      "ĠJ": 3090,
      "Ġingredients": 3091,
      "Ġab": 3092,
      "ina": 3093,
      "Ġtank": 3094,
      "Ġow": 3095,
      "Ġsix": 3096,
      "ither": 3097,
      "Ġber": 3098,
      "Ġbad": 3099,
      "Ġpand": 3100,
      "Ġcop": 3101,
      "Ġcustom": 3102,
      "ator": 3103,
      "ators": 3104,
      "Ġindividual": 3105,
      "Ġfoc": 3106,
      "Ġmud": 3107,
      "Ġmushroom": 3108,
      "Ġhum": 3109,
      "Ġguit": 3110,
      "Ġdet": 3111,
      "Ġdusk": 3112,
      "Ġlis": 3113,
      "Ġlink": 3114,
      "Ġstud": 3115,
      "Ġstuck": 3116,
      "omot": 3117,
      "cking": 3118,
      "cker": 3119,
      "Ġnintendo": 3120,
      "allic": 3121,
      "ically": 3122,
      "icolored": 3123,
      "Ġevery": 3124,
      "Ġeither": 3125,
      "Ġrep": 3126,
      "Ġcoach": 3127,
      "Ġke": 3128,
      "Ġplow": 3129,
      "Ġsharing": 3130,
      "Ġlaid": 3131,
      "ament": 3132,
      "Ġvest": 3133,
      "Ġribb": 3134,
      "Ġcarries": 3135,
      "Ġflight": 3136,
      "Ġfloral": 3137,
      "Ġraised": 3138,
      "iments": 3139,
      "Ġherself": 3140,
      "ycles": 3141,
      "Ġjets": 3142,
      "Ġbent": 3143,
      "Ġwaff": 3144,
      "Ġleap": 3145,
      "Ġpictured": 3146,
      "Ġhere": 3147,
      "Ġwears": 3148,
      "boat": 3149,
      "Ġtail": 3150,
      "Ġcloseup": 3151,
      "Ġmostly": 3152,
      "agull": 3153,
      "ĠSH": 3154,
      "ĠWOM": 3155,
      "Ġmetallic": 3156,
      "Ġsaf": 3157,
      "Ġhills": 3158,
      "Ġcorn": 3159,
      "Ġserv": 3160,
      "Ġloading": 3161,
      "Ġlogo": 3162,
      "acon": 3163,
      "Ġleading": 3164,
      "Ġseating": 3165,
      "Ġexp": 3166,
      "Ġholes": 3167,
      "Ġmarble": 3168,
      "Ġpaved": 3169,
      "Ġcounters": 3170,
      "Ġenjoy": 3171,
      "ERS": 3172,
      "Ġseems": 3173,
      "Ġpeppers": 3174,
      "Ġnewsp": 3175,
      "ancing": 3176,
      "Ġwritten": 3177,
      "Ġexten": 3178,
      "Ġfoil": 3179,
      "ALL": 3180,
      "Ġdelicious": 3181,
      "Ġbakery": 3182,
      "yclists": 3183,
      "Adult": 3184,
      "Ġdriveway": 3185,
      "Ġcomforter": 3186,
      "Ġpaws": 3187,
      "Ġcardboard": 3188,
      "Ġantique": 3189,
      "Ġbucket": 3190,
      "Elephant": 3191,
      "Ġaudience": 3192,
      "Ġliquid": 3193,
      "Ġcompetition": 3194,
      "Ġcondiments": 3195,
      "izza": 3196,
      "Ġtunnel": 3197,
      "Ġvendor": 3198,
      "Ġgentle": 3199,
      "Ġnotebook": 3200,
      "Ġpanda": 3201,
      "omotive": 3202,
      "Ġribbon": 3203,
      "\".": 3204,
      "Don": 3205,
      "LDING": 3206,
      "TH": 3207,
      "We": 3208,
      "dling": 3209,
      "four": 3210,
      "front": 3211,
      "ho": 3212,
      "iet": 3213,
      "ipped": 3214,
      "mi": 3215,
      "min": 3216,
      "med": 3217,
      "mpt": 3218,
      "shing": 3219,
      "velling": 3220,
      "inding": 3221,
      "inese": 3222,
      "Ġtabby": 3223,
      "Ġbit": 3224,
      "Ġbri": 3225,
      "Ġwinter": 3226,
      "Ġpin": 3227,
      "Ġpor": 3228,
      "ano": 3229,
      "Ġcome": 3230,
      "Ġclay": 3231,
      "arger": 3232,
      "Ġfill": 3233,
      "Ġfighting": 3234,
      "ises": 3235,
      "Ġmural": 3236,
      "Ġhanding": 3237,
      "Ġdug": 3238,
      "Ġdim": 3239,
      "Ġduck": 3240,
      "Ġlarger": 3241,
      "Ġstar": 3242,
      "Ġstring": 3243,
      "ckers": 3244,
      "eting": 3245,
      "Ġnat": 3246,
      "ili": 3247,
      "ilt": 3248,
      "Ġbeef": 3249,
      "Ġtravelling": 3250,
      "Ġcovers": 3251,
      "Ġshadow": 3252,
      "Ġgrab": 3253,
      "Ġgravel": 3254,
      "Ġpersonal": 3255,
      "Ġbatting": 3256,
      "ounge": 3257,
      "Ġcargo": 3258,
      "Ġrad": 3259,
      "Ġbuilt": 3260,
      "Ġrub": 3261,
      "Ġforward": 3262,
      "Ġhors": 3263,
      "Ġmotion": 3264,
      "Ġseas": 3265,
      "Ġalmo": 3266,
      "Ġlighted": 3267,
      "ĠTABLE": 3268,
      "Ġdeer": 3269,
      "Ġdead": 3270,
      "ager": 3271,
      "aged": 3272,
      "Ġhydrants": 3273,
      "Ġshirtless": 3274,
      "Ġsuits": 3275,
      "Ġgoes": 3276,
      "Ġcountertop": 3277,
      "ĠBU": 3278,
      "Ġsailing": 3279,
      "Ġdresser": 3280,
      "ĠPLA": 3281,
      "pect": 3282,
      "gged": 3283,
      "Ġleaving": 3284,
      "ITE": 3285,
      "Ġpanc": 3286,
      "Ġmatching": 3287,
      "Ġhelping": 3288,
      "Ġhosp": 3289,
      "Ġwhee": 3290,
      "Ġreflecting": 3291,
      "Ġdesserts": 3292,
      "Ġfriend": 3293,
      "Ġletting": 3294,
      "Ġquiet": 3295,
      "Ġlocomotive": 3296,
      "Ġtrunks": 3297,
      "Ġprinter": 3298,
      "ALKING": 3299,
      "Ġpeeking": 3300,
      "Ġchecking": 3301,
      "Ġindoors": 3302,
      "Ġcovering": 3303,
      "Ġclassroom": 3304,
      "Ġfunny": 3305,
      "Ġcrouched": 3306,
      "Ġfigures": 3307,
      "Ġyou": 3308,
      "Ġvisible": 3309,
      "Ġposition": 3310,
      "Ġapproaching": 3311,
      "Ġsteeple": 3312,
      "Ġnapkin": 3313,
      "Ġladies": 3314,
      "Ġwrapped": 3315,
      "useum": 3316,
      "Ġfrisbees": 3317,
      "IDE": 3318,
      "Ġphotographer": 3319,
      "Ġfighter": 3320,
      "Ġinteractive": 3321,
      "Ġsafety": 3322,
      "Ġalmost": 3323,
      "AM": 3324,
      "Bus": 3325,
      "Guy": 3326,
      "Mot": 3327,
      "Six": 3328,
      "Tennis": 3329,
      "URE": 3330,
      "car": 3331,
      "gn": 3332,
      "green": 3333,
      "hol": 3334,
      "ipping": 3335,
      "ls": 3336,
      "tru": 3337,
      "where": 3338,
      "xi": 3339,
      "za": 3340,
      "Ġill": 3341,
      "Ġact": 3342,
      "Ġtick": 3343,
      "Ġsu": 3344,
      "Ġsug": 3345,
      "Ġsets": 3346,
      "ittle": 3347,
      "Ġbiting": 3348,
      "Ġbacon": 3349,
      "Ġwip": 3350,
      "Ġpig": 3351,
      "Ġpushing": 3352,
      "Ġcran": 3353,
      "Ġfed": 3354,
      "Ġmore": 3355,
      "Ġmuseum": 3356,
      "Ġhal": 3357,
      "Ġlounge": 3358,
      "omb": 3359,
      "rage": 3360,
      "owed": 3361,
      "Ġnuts": 3362,
      "opy": 3363,
      "asing": 3364,
      "Ġsiting": 3365,
      "oose": 3366,
      "ooks": 3367,
      "ico": 3368,
      "iced": 3369,
      "olf": 3370,
      "ersey": 3371,
      "Ġthing": 3372,
      "Ġreach": 3373,
      "Ġcoin": 3374,
      "Ġrose": 3375,
      "Ġrode": 3376,
      "These": 3377,
      "Ġfix": 3378,
      "Ġchar": 3379,
      "Ġchili": 3380,
      "Ġupon": 3381,
      "Ġval": 3382,
      "Ġwaters": 3383,
      "Ġflood": 3384,
      "Ġfluff": 3385,
      "Ġsne": 3386,
      "Ġblur": 3387,
      "Ġblowing": 3388,
      "Ġcomb": 3389,
      "ruise": 3390,
      "ctor": 3391,
      "Ġhorns": 3392,
      "Ġjar": 3393,
      "Ġjumb": 3394,
      "Ġjars": 3395,
      "Ġjersey": 3396,
      "Ġseagull": 3397,
      "Ġsemi": 3398,
      "Ġoverpass": 3399,
      "Ġlean": 3400,
      "Ġheart": 3401,
      "reline": 3402,
      "Ġwear": 3403,
      "Ġslow": 3404,
      "Ġslight": 3405,
      "Ġalco": 3406,
      "Ġintere": 3407,
      "Ġstops": 3408,
      "boats": 3409,
      "Ġbank": 3410,
      "Ġtaxi": 3411,
      "Ġcellphones": 3412,
      "Ġrunner": 3413,
      "INK": 3414,
      "Ġflooring": 3415,
      "vely": 3416,
      "Ġchef": 3417,
      "Ġunus": 3418,
      "Ġunmade": 3419,
      "Ġunique": 3420,
      "ĠOUT": 3421,
      "thy": 3422,
      "Ġworks": 3423,
      "Ġpropped": 3424,
      "Ġstorage": 3425,
      "tening": 3426,
      "Ġremo": 3427,
      "Ġdoubles": 3428,
      "Ġtrays": 3429,
      "Ġcanoe": 3430,
      "Ġbarrier": 3431,
      "brary": 3432,
      "Ġpears": 3433,
      "Ġenclosed": 3434,
      "Ġmulticolored": 3435,
      "Ġexhib": 3436,
      "Ġfeathers": 3437,
      "ĠGIR": 3438,
      "dered": 3439,
      "Ġlamps": 3440,
      "Ġpicking": 3441,
      "Ġshoreline": 3442,
      "Ġarrange": 3443,
      "Ġhambur": 3444,
      "ARD": 3445,
      "Ġbalancing": 3446,
      "Ġfashion": 3447,
      "Ġburger": 3448,
      "Ġprin": 3449,
      "Ġstrawberry": 3450,
      "Ġformal": 3451,
      "Ġformation": 3452,
      "Ġfaces": 3453,
      "Ġjeep": 3454,
      "Plates": 3455,
      "Ġtwin": 3456,
      "Ġhallway": 3457,
      "Couple": 3458,
      "inished": 3459,
      "Ġspray": 3460,
      "Ġpracticing": 3461,
      "Ġsniffing": 3462,
      "Ġblonde": 3463,
      "uminated": 3464,
      "Ġheavy": 3465,
      "Ġclimbing": 3466,
      "coming": 3467,
      "Ġpropeller": 3468,
      "Ġfocus": 3469,
      "Ġguitar": 3470,
      "Ġwaffle": 3471,
      "Ġservice": 3472,
      "Ġnewspaper": 3473,
      "Ġgentleman": 3474,
      "Ġbrief": 3475,
      "ĠPLAYING": 3476,
      "Ġhospital": 3477,
      "Ġfluffy": 3478,
      "Ġjumbo": 3479,
      "Ġexhibit": 3480,
      "'t": 3481,
      "Be": 3482,
      "EA": 3483,
      "Kid": 3484,
      "Out": 3485,
      "She": 3486,
      "TURE": 3487,
      "bi": 3488,
      "cial": 3489,
      "fric": 3490,
      "gan": 3491,
      "ha": 3492,
      "ively": 3493,
      "lane": 3494,
      "no": 3495,
      "par": 3496,
      "perat": 3497,
      "was": 3498,
      "ym": 3499,
      "Ġ3": 3500,
      "Ġ6": 3501,
      "ĠY": 3502,
      "Ġaw": 3503,
      "Ġaerial": 3504,
      "inach": 3505,
      "Ġown": 3506,
      "Ġoperat": 3507,
      "Ġsle": 3508,
      "Ġsold": 3509,
      "Ġbaking": 3510,
      "Ġwing": 3511,
      "Ġwool": 3512,
      "Ġpal": 3513,
      "Ġpony": 3514,
      "Ġcush": 3515,
      "Ġcast": 3516,
      "Ġcases": 3517,
      "Ġcruise": 3518,
      "lete": 3519,
      "erness": 3520,
      "Ġonion": 3521,
      "atching": 3522,
      "Ġfold": 3523,
      "Ġfact": 3524,
      "Ġmit": 3525,
      "Ġhad": 3526,
      "Ġhiding": 3527,
      "Ġhooked": 3528,
      "ense": 3529,
      "Ġgri": 3530,
      "Ġgran": 3531,
      "Ġgaz": 3532,
      "Ġducks": 3533,
      "Ġlang": 3534,
      "Ġstir": 3535,
      "Ġstage": 3536,
      "Ġstorm": 3537,
      "raper": 3538,
      "ests": 3539,
      "ownt": 3540,
      "unk": 3541,
      "asting": 3542,
      "chup": 3543,
      "ots": 3544,
      "icely": 3545,
      "Ġtho": 3546,
      "Ġthrown": 3547,
      "Ġears": 3548,
      "Ġroman": 3549,
      "eback": 3550,
      "Ġfixt": 3551,
      "Ġships": 3552,
      "ams": 3553,
      "Ġpipes": 3554,
      "Ġcarts": 3555,
      "Ġhistor": 3556,
      "Ġsnugg": 3557,
      "Ġblow": 3558,
      "Ġposs": 3559,
      "Ġpoint": 3560,
      "zzy": 3561,
      "boards": 3562,
      "Ġairliner": 3563,
      "Ġherding": 3564,
      "rance": 3565,
      "Ġskates": 3566,
      "Ġdisk": 3567,
      "Ġskiis": 3568,
      "Ġwindy": 3569,
      "pple": 3570,
      "Ġhandic": 3571,
      "Ġscoot": 3572,
      "Ġspla": 3573,
      "Ġsplit": 3574,
      "Ġspinach": 3575,
      "ways": 3576,
      "Ġdeep": 3577,
      "Ġskysc": 3578,
      "Ġskyline": 3579,
      "Ġmos": 3580,
      "Ġmov": 3581,
      "Ġdried": 3582,
      "Ġflowered": 3583,
      "Ġimp": 3584,
      "Ġarch": 3585,
      "Ġgrazes": 3586,
      "Ġvegetation": 3587,
      "Ġchew": 3588,
      "Ġunit": 3589,
      "Ġrefrigerators": 3590,
      "Ġslopes": 3591,
      "ĠFI": 3592,
      "REET": 3593,
      "ĠCO": 3594,
      "Ġcontrols": 3595,
      "Ġador": 3596,
      "Ġtelephone": 3597,
      "aker": 3598,
      "aked": 3599,
      "ĠPIC": 3600,
      "ĠPERS": 3601,
      "Ġtalks": 3602,
      "Ġrails": 3603,
      "uddle": 3604,
      "Ġcanopy": 3605,
      "Ġbooth": 3606,
      "Ġbarbed": 3607,
      "Ġattire": 3608,
      "Ġpitching": 3609,
      "Ġsleeps": 3610,
      "ĠLond": 3611,
      "Ġtrim": 3612,
      "Ġobser": 3613,
      "Ġdishwas": 3614,
      "ĠHO": 3615,
      "Ġmarsh": 3616,
      "Ġcookies": 3617,
      "ĠDO": 3618,
      "Ġdirect": 3619,
      "Ġworkers": 3620,
      "Ġreflected": 3621,
      "ERY": 3622,
      "Ġsquat": 3623,
      "Ġgrinding": 3624,
      "Ġwilderness": 3625,
      "Ġbaskets": 3626,
      "Ġrolls": 3627,
      "Ġchained": 3628,
      "Ġmachines": 3629,
      "ĠSTREET": 3630,
      "ONE": 3631,
      "Ġutility": 3632,
      "Ġprint": 3633,
      "Ġcrackers": 3634,
      "Ġattempt": 3635,
      "Ġ12": 3636,
      "Ġtourists": 3637,
      "Ġpedestrian": 3638,
      "Ġshiny": 3639,
      "Ġentrance": 3640,
      "Ġfollowing": 3641,
      "Ġfigur": 3642,
      "Ġcomfort": 3643,
      "Ġpositioned": 3644,
      "Ġturkey": 3645,
      "ELL": 3646,
      "Ġmagn": 3647,
      "Ġdepic": 3648,
      "Ġstretches": 3649,
      "Ġlaughing": 3650,
      "Ġballoons": 3651,
      "Ġsweater": 3652,
      "Ġcalico": 3653,
      "Ġfingers": 3654,
      "Ġketchup": 3655,
      "Ġmodel": 3656,
      "Ġpineapple": 3657,
      "Bananas": 3658,
      "Ġsize": 3659,
      "Ġpigeons": 3660,
      "Ġdispenser": 3661,
      "Ġgarnish": 3662,
      "Ġowner": 3663,
      "Ġmushrooms": 3664,
      "ĠWOMAN": 3665,
      "Ġdimly": 3666,
      "Ġhorseback": 3667,
      "gnant": 3668,
      "Ġilluminated": 3669,
      "Ġsuite": 3670,
      "Ġsugar": 3671,
      "Ġvalley": 3672,
      "Ġflooded": 3673,
      "Ġalcohol": 3674,
      "Ġarrangement": 3675,
      "Ġhamburger": 3676,
      "Ġfactory": 3677,
      "Ġlangu": 3678,
      "owntown": 3679,
      "Ġscooters": 3680,
      "ĠPICTURE": 3681,
      "ĠPERSON": 3682,
      "ĠLondon": 3683,
      "Ġdishwasher": 3684,
      ".\"": 3685,
      "ACK": 3686,
      "Bic": 3687,
      "Col": 3688,
      "EAR": 3689,
      "FF": 3690,
      "Gra": 3691,
      "Green": 3692,
      "He": 3693,
      "It": 3694,
      "LO": 3695,
      "Living": 3696,
      "Male": 3697,
      "NT": 3698,
      "NIS": 3699,
      "Pair": 3700,
      "Ro": 3701,
      "SIDE": 3702,
      "Teddy": 3703,
      "UG": 3704,
      "WO": 3705,
      "Yellow": 3706,
      "ailing": 3707,
      "cra": 3708,
      "cony": 3709,
      "drop": 3710,
      "ex": 3711,
      "fet": 3712,
      "gie": 3713,
      "iron": 3714,
      "mets": 3715,
      "od": 3716,
      "ok": 3717,
      "pas": 3718,
      "rid": 3719,
      "ties": 3720,
      "time": 3721,
      "view": 3722,
      "vated": 3723,
      "white": 3724,
      "ze": 3725,
      "zy": 3726,
      "Ġ4": 3727,
      "Ġel": 3728,
      "Ġaut": 3729,
      "ined": 3730,
      "Ġtus": 3731,
      "Ġtalk": 3732,
      "Ġtape": 3733,
      "Ġtrop": 3734,
      "Ġoli": 3735,
      "Ġoval": 3736,
      "Ġsus": 3737,
      "Ġbul": 3738,
      "Ġwings": 3739,
      "Ġwarm": 3740,
      "ana": 3741,
      "Ġcalm": 3742,
      "ater": 3743,
      "ateb": 3744,
      "Ġind": 3745,
      "arf": 3746,
      "ison": 3747,
      "Ġmass": 3748,
      "Ġgaming": 3749,
      "Ġgolf": 3750,
      "Ġgym": 3751,
      "Ġdowntown": 3752,
      "Ġton": 3753,
      "Ġtor": 3754,
      "Ġtoss": 3755,
      "Ġlab": 3756,
      "alled": 3757,
      "alized": 3758,
      "althy": 3759,
      "Ġstad": 3760,
      "oned": 3761,
      "ories": 3762,
      "ower": 3763,
      "Ġname": 3764,
      "ope": 3765,
      "oping": 3766,
      "chair": 3767,
      "elves": 3768,
      "ols": 3769,
      "ushed": 3770,
      "Ġthird": 3771,
      "Ġbeak": 3772,
      "Ġeas": 3773,
      "Ġreally": 3774,
      "Ġrol": 3775,
      "ebo": 3776,
      "Ġplacing": 3777,
      "Ġplaza": 3778,
      "Ġfrozen": 3779,
      "Ġfive": 3780,
      "Ġparach": 3781,
      "Ġparade": 3782,
      "Ġchasing": 3783,
      "amp": 3784,
      "ountain": 3785,
      "andalized": 3786,
      "Ġpiano": 3787,
      "Ġvandalized": 3788,
      "Ġcloset": 3789,
      "several": 3790,
      "igns": 3791,
      "ured": 3792,
      "Ġgrasses": 3793,
      "Ġblind": 3794,
      "tery": 3795,
      "Ġaircra": 3796,
      "Ġbedsp": 3797,
      "Ġlie": 3798,
      "Ġlif": 3799,
      "Ġlicking": 3800,
      "Ġsepar": 3801,
      "Ġdesc": 3802,
      "Ġzone": 3803,
      "Ġlens": 3804,
      "Ġmotorbi": 3805,
      "Ġhealthy": 3806,
      "Ġweather": 3807,
      "Ġmotorcyclists": 3808,
      "Ġscr": 3809,
      "Ġstopping": 3810,
      "Ġspect": 3811,
      "Ġcold": 3812,
      "Ġtags": 3813,
      "ĠTEN": 3814,
      "Ġbuns": 3815,
      "Ġcowboy": 3816,
      "ĠWAT": 3817,
      "ĠWALKING": 3818,
      "Ġmaj": 3819,
      "Ġmales": 3820,
      "Ġviewing": 3821,
      "anger": 3822,
      "uffed": 3823,
      "Ġpregnant": 3824,
      "Ġsaying": 3825,
      "Ġarri": 3826,
      "Ġcamp": 3827,
      "Ġuses": 3828,
      "Ġseries": 3829,
      "Ġcurve": 3830,
      "Ġcrosses": 3831,
      "Ġkeyboards": 3832,
      "Ġbicyclist": 3833,
      "Ġprote": 3834,
      "Ġadj": 3835,
      "acious": 3836,
      "Ġcleaning": 3837,
      "Ġmeadow": 3838,
      "Ġbagel": 3839,
      "Ġstatues": 3840,
      "Ġorgan": 3841,
      "AND": 3842,
      "Ġresort": 3843,
      "Ġstores": 3844,
      "Ġways": 3845,
      "ĠLOO": 3846,
      "Ġpeas": 3847,
      "Ġpeel": 3848,
      "ATE": 3849,
      "Ġcafe": 3850,
      "Ġhelmets": 3851,
      "Ġexpo": 3852,
      "Ġclouds": 3853,
      "Ġsticker": 3854,
      "Ġhose": 3855,
      "Ġpens": 3856,
      "ĠGRO": 3857,
      "Ġamount": 3858,
      "decker": 3859,
      "Stuffed": 3860,
      "Ġshape": 3861,
      "Ġfreshly": 3862,
      "ĠChinese": 3863,
      "Ġextra": 3864,
      "Ġgolden": 3865,
      "ĠiPh": 3866,
      "Ġcrate": 3867,
      "Ġfootball": 3868,
      "Train": 3869,
      "Ġterrain": 3870,
      "Ġarmy": 3871,
      "Ġinclude": 3872,
      "Boats": 3873,
      "Ġgloves": 3874,
      "Ġdesigned": 3875,
      "Ġcupcakes": 3876,
      "Adults": 3877,
      "Plate": 3878,
      "Ġapproaches": 3879,
      "plies": 3880,
      "Ġproduct": 3881,
      "Ġaccents": 3882,
      "Ġinstalled": 3883,
      "Ġlemons": 3884,
      "Ġteenager": 3885,
      "Ġentertain": 3886,
      "lowers": 3887,
      "Ġsupplies": 3888,
      "Ġferry": 3889,
      "Ġtransportation": 3890,
      "Ġbillboard": 3891,
      "Ġfurnis": 3892,
      "Ġmoped": 3893,
      "ĠPHONE": 3894,
      "Ġjockeys": 3895,
      "Ġcircular": 3896,
      "Ġsimple": 3897,
      "Ġbuffet": 3898,
      "Ġberries": 3899,
      "Ġlistening": 3900,
      "Ġleaping": 3901,
      "Elephants": 3902,
      "THIS": 3903,
      "Ġdugout": 3904,
      "Ġpancakes": 3905,
      "Motor": 3906,
      "Ġslee": 3907,
      "Ġfolded": 3908,
      "Ġmagnets": 3909,
      "Color": 3910,
      "Ġtusks": 3911,
      "Ġtropical": 3912,
      "Ġolives": 3913,
      "ateboard": 3914,
      "Ġstadium": 3915,
      "Ġparachute": 3916,
      "Ġaircraft": 3917,
      "Ġbedspread": 3918,
      "ĠTENNIS": 3919,
      "ĠiPhone": 3920,
      "Ass": 3921,
      "Bro": 3922,
      "Car": 3923,
      "City": 3924,
      "Di": 3925,
      "Dog": 3926,
      "KE": 3927,
      "Lady": 3928,
      "Little": 3929,
      "MA": 3930,
      "Pic": 3931,
      "ST": 3932,
      "Sh": 3933,
      "Slic": 3934,
      "aw": 3935,
      "bby": 3936,
      "cul": 3937,
      "cending": 3938,
      "ders": 3939,
      "eree": 3940,
      "fo": 3941,
      "foot": 3942,
      "gy": 3943,
      "gen": 3944,
      "gant": 3945,
      "hroom": 3946,
      "ied": 3947,
      "ila": 3948,
      "ker": 3949,
      "nd": 3950,
      "sk": 3951,
      "suit": 3952,
      "selves": 3953,
      "tes": 3954,
      "ters": 3955,
      "tress": 3956,
      "uro": 3957,
      "uet": 3958,
      "uzzy": 3959,
      "viron": 3960,
      "xed": 3961,
      "Ġ8": 3962,
      "Ġid": 3963,
      "ĠZebra": 3964,
      "ĠROOM": 3965,
      "Ġahead": 3966,
      "inn": 3967,
      "ination": 3968,
      "Ġtro": 3969,
      "Ġtight": 3970,
      "Ġsla": 3971,
      "Ġsell": 3972,
      "Ġsled": 3973,
      "Ġble": 3974,
      "Ġbor": 3975,
      "Ġband": 3976,
      "rem": 3977,
      "rest": 3978,
      "Ġcer": 3979,
      "Ġcare": 3980,
      "Ġcool": 3981,
      "eria": 3982,
      "arp": 3983,
      "arking": 3984,
      "Ġfair": 3985,
      "Ġfountain": 3986,
      "Ġfuzzy": 3987,
      "Ġany": 3988,
      "Ġmay": 3989,
      "Ġmuch": 3990,
      "Ġmuff": 3991,
      "Ġhusk": 3992,
      "Ġhung": 3993,
      "Ġge": 3994,
      "Ġlime": 3995,
      "Ġstrange": 3996,
      "omen": 3997,
      "rab": 3998,
      "labor": 3999,
      "Ġna": 4000,
      "Ġnames": 4001,
      "Ġnicely": 4002,
      "Ġmane": 4003,
      "ask": 4004,
      "ilted": 4005,
      "Ġstance": 4006,
      "ictor": 4007,
      "Ġthin": 4008,
      "Ġthan": 4009,
      "Ġath": 4010,
      "Ġrel": 4011,
      "Ġskill": 4012,
      "Ġgroc": 4013,
      "Ġgrow": 4014,
      "Ġtops": 4015,
      "Ġtopping": 4016,
      "Ġgrapes": 4017,
      "Ġchalk": 4018,
      "anta": 4019,
      "Ġcatches": 4020,
      "Ġupward": 4021,
      "Ġpierc": 4022,
      "Ġcloud": 4023,
      "uling": 4024,
      "Ġcarry": 4025,
      "Ġcarved": 4026,
      "Ġsideways": 4027,
      "station": 4028,
      "sticks": 4029,
      "Ġwaterway": 4030,
      "Ġkitty": 4031,
      "Ġpock": 4032,
      "tures": 4033,
      "Ġlibrary": 4034,
      "Ġjunk": 4035,
      "Ġgives": 4036,
      "Ġbackdrop": 4037,
      "Ġcompartment": 4038,
      "Ġelegant": 4039,
      "Ġwake": 4040,
      "Ġlear": 4041,
      "Ġskateboarders": 4042,
      "Ġheels": 4043,
      "Ġweeds": 4044,
      "Ġwinds": 4045,
      "ĠApple": 4046,
      "Ġintently": 4047,
      "pended": 4048,
      "Ġascending": 4049,
      "Ġscarf": 4050,
      "Ġtag": 4051,
      "ĠTRE": 4052,
      "ĠTOP": 4053,
      "Ġenviron": 4054,
      "Ġmove": 4055,
      "Ġdriver": 4056,
      "Ġreferee": 4057,
      "ĠSU": 4058,
      "ĠStop": 4059,
      "ĠSINK": 4060,
      "ĠWH": 4061,
      "ĠWay": 4062,
      "ĠWest": 4063,
      "Ġmetro": 4064,
      "Ġdrying": 4065,
      "ĠBAT": 4066,
      "ĠBLA": 4067,
      "Ġhauling": 4068,
      "Ġcorral": 4069,
      "Ġchewing": 4070,
      "venue": 4071,
      "Ġserves": 4072,
      "Ġguiding": 4073,
      "Ġthemselves": 4074,
      "ĠFRO": 4075,
      "ĠCAT": 4076,
      "Ġemer": 4077,
      "Ġword": 4078,
      "Ġwords": 4079,
      "Ġproject": 4080,
      "Ġprocess": 4081,
      "Ġlobby": 4082,
      "shield": 4083,
      "Ġknow": 4084,
      "Ġmem": 4085,
      "Ġmeeting": 4086,
      "Ġpottery": 4087,
      "Ġdonkey": 4088,
      "Ġrailway": 4089,
      "Ġmeats": 4090,
      "Ġsetup": 4091,
      "Ġcanal": 4092,
      "Ġitem": 4093,
      "Ġsteam": 4094,
      "toon": 4095,
      "Ġsilho": 4096,
      "Ġpurse": 4097,
      "Ġpean": 4098,
      "Ġmaterial": 4099,
      "Ġmattress": 4100,
      "ATING": 4101,
      "Ġcaught": 4102,
      "Ġphotographs": 4103,
      "Ġnumbers": 4104,
      "Ġstrip": 4105,
      "Ġstickers": 4106,
      "Ġhockey": 4107,
      "ĠHIS": 4108,
      "Ġmarina": 4109,
      "Ġparent": 4110,
      "Ġshops": 4111,
      "Ġmilking": 4112,
      "Ġspoons": 4113,
      "Ġcatchers": 4114,
      "Ġlayer": 4115,
      "Ġtoothbrushes": 4116,
      "Ġspeaking": 4117,
      "Ġspeakers": 4118,
      "Ġsailboats": 4119,
      "Ġquick": 4120,
      "Ġbalan": 4121,
      "Ġbalcony": 4122,
      "Ġartist": 4123,
      "Ġbasketball": 4124,
      "Ġfoggy": 4125,
      "Ġharness": 4126,
      "Ġpoints": 4127,
      "Ġmessage": 4128,
      "Ġknees": 4129,
      "Ġinterior": 4130,
      "Ġfreeway": 4131,
      "Ġcheckered": 4132,
      "Ġ10": 4133,
      "Ġ19": 4134,
      "Ġhotdogs": 4135,
      "Ġhappily": 4136,
      "bbing": 4137,
      "Ġclassic": 4138,
      "Boy": 4139,
      "Ġjeans": 4140,
      "Skier": 4141,
      "Skiers": 4142,
      "Horse": 4143,
      "Ġglides": 4144,
      "Blurry": 4145,
      "Ġyouth": 4146,
      "Ġcircle": 4147,
      "Giraffe": 4148,
      "Ġaccess": 4149,
      "Ġbikers": 4150,
      "Ġcastle": 4151,
      "Ġpractice": 4152,
      "Ġmagaz": 4153,
      "Ġpattern": 4154,
      "Ġpatterned": 4155,
      "Ġdelivery": 4156,
      "Comp": 4157,
      "lower": 4158,
      "Ġfinger": 4159,
      "Photo": 4160,
      "Ġstraight": 4161,
      "Ġsecond": 4162,
      "Ġbookshelf": 4163,
      "Ġbookshelves": 4164,
      "Kitchen": 4165,
      "Ġwarning": 4166,
      "Ġshrubs": 4167,
      "Ġpresent": 4168,
      "Ġcustomers": 4169,
      "Ġhuman": 4170,
      "Ġrepair": 4171,
      "Ġextended": 4172,
      "Donuts": 4173,
      "Ġporch": 4174,
      "Ġnatural": 4175,
      "Ġticket": 4176,
      "Ġrodeo": 4177,
      "Ġsneakers": 4178,
      "Ġslightly": 4179,
      "Ġinteresting": 4180,
      "Ġbriefcase": 4181,
      "Sheep": 4182,
      "Ġoperating": 4183,
      "Ġmitt": 4184,
      "Ġgranite": 4185,
      "Ġhistoric": 4186,
      "Ġskyscraper": 4187,
      "Ġdirectly": 4188,
      "Ġattempts": 4189,
      "Ġfigurines": 4190,
      "UGH": 4191,
      "Ġsuspended": 4192,
      "Ġroller": 4193,
      "Ġscratching": 4194,
      "Ġspectators": 4195,
      "ĠLOOKING": 4196,
      "Motorc": 4197,
      "Colorful": 4198,
      "Assort": 4199,
      "Different": 4200,
      "Ġhusky": 4201,
      "Ġpiercings": 4202,
      "Ġenvironment": 4203,
      "ĠBLACK": 4204,
      "Ġsilhouet": 4205,
      "50": 4206,
      "Bed": 4207,
      "Cow": 4208,
      "Do": 4209,
      "Flowers": 4210,
      "HROOM": 4211,
      "ION": 4212,
      "La": 4213,
      "MB": 4214,
      "Mo": 4215,
      "On": 4216,
      "Orange": 4217,
      "PH": 4218,
      "Park": 4219,
      "Part": 4220,
      "Pass": 4221,
      "Pizza": 4222,
      "Sc": 4223,
      "Sn": 4224,
      "So": 4225,
      "TS": 4226,
      "Te": 4227,
      "UP": 4228,
      "Ve": 4229,
      "Women": 4230,
      "aved": 4231,
      "bing": 4232,
      "cy": 4233,
      "con": 4234,
      "cast": 4235,
      "den": 4236,
      "fts": 4237,
      "gu": 4238,
      "gin": 4239,
      "gre": 4240,
      "gress": 4241,
      "hat": 4242,
      "hor": 4243,
      "iver": 4244,
      "ipp": 4245,
      "look": 4246,
      "ole": 4247,
      "pid": 4248,
      "tra": 4249,
      "thing": 4250,
      "uis": 4251,
      "wel": 4252,
      "Ġic": 4253,
      "ĠThe": 4254,
      "ĠTh": 4255,
      "ĠHE": 4256,
      "ĠRE": 4257,
      "Ġav": 4258,
      "Ġaqu": 4259,
      "ining": 4260,
      "Ġtat": 4261,
      "Ġtid": 4262,
      "Ġtry": 4263,
      "Ġtusk": 4264,
      "Ġsid": 4265,
      "Ġsuch": 4266,
      "ited": 4267,
      "Ġbra": 4268,
      "Ġbrow": 4269,
      "Ġbip": 4270,
      "Ġbars": 4271,
      "Ġwit": 4272,
      "Ġpay": 4273,
      "Ġpets": 4274,
      "Ġpress": 4275,
      "Ġputs": 4276,
      "Ġpuddle": 4277,
      "anad": 4278,
      "anna": 4279,
      "Ġcree": 4280,
      "Ġcone": 4281,
      "Ġcave": 4282,
      "Ġcram": 4283,
      "Ġonlook": 4284,
      "Ġinc": 4285,
      "Ġincoming": 4286,
      "Ġfis": 4287,
      "Ġfry": 4288,
      "Ġfoli": 4289,
      "Ġfurry": 4290,
      "isting": 4291,
      "Ġmus": 4292,
      "Ġmain": 4293,
      "Ġhur": 4294,
      "Ġhugg": 4295,
      "Ġdom": 4296,
      "Ġdash": 4297,
      "Ġdusty": 4298,
      "Ġtourn": 4299,
      "Ġlim": 4300,
      "Ġlimb": 4301,
      "Ġstr": 4302,
      "Ġstom": 4303,
      "rail": 4304,
      "dings": 4305,
      "Ġnetting": 4306,
      "ashed": 4307,
      "Ġsite": 4308,
      "chan": 4309,
      "illet": 4310,
      "elier": 4311,
      "otic": 4312,
      "urning": 4313,
      "olding": 4314,
      "Ġthumb": 4315,
      "Ġatten": 4316,
      "Ġbeers": 4317,
      "ably": 4318,
      "Ġever": 4319,
      "Ġemp": 4320,
      "Ġelabor": 4321,
      "Ġread": 4322,
      "Ġreno": 4323,
      "Ġtractor": 4324,
      "Ġrob": 4325,
      "Ġrobe": 4326,
      "Ġskin": 4327,
      "Ġskillet": 4328,
      "Ġplaces": 4329,
      "vey": 4330,
      "Ġkis": 4331,
      "iled": 4332,
      "Ġplan": 4333,
      "Ġshad": 4334,
      "Ġshines": 4335,
      "Ġsharp": 4336,
      "Ġgrown": 4337,
      "Ġgrabbing": 4338,
      "Ġyour": 4339,
      "Ġchand": 4340,
      "Ġchristmas": 4341,
      "ama": 4342,
      "andoned": 4343,
      "Ġgrouped": 4344,
      "Ġrim": 4345,
      "Ġsomeones": 4346,
      "uld": 4347,
      "Ġcartoon": 4348,
      "Ġflipping": 4349,
      "stri": 4350,
      "Ġcomes": 4351,
      "oney": 4352,
      "Ġsurfs": 4353,
      "Ġrings": 4354,
      "Ġrises": 4355,
      "Ġplayground": 4356,
      "Ġyounger": 4357,
      "zzly": 4358,
      "ctive": 4359,
      "Ġairbor": 4360,
      "Ġlips": 4361,
      "Ġgive": 4362,
      "Ġelevated": 4363,
      "ief": 4364,
      "Ġzomb": 4365,
      "Ġovercast": 4366,
      "Ġroadside": 4367,
      "Ġleads": 4368,
      "Ġlego": 4369,
      "Ġlegged": 4370,
      "Ġwere": 4371,
      "Ġconso": 4372,
      "Ġwindshield": 4373,
      "Ġdesks": 4374,
      "Ġalley": 4375,
      "ĠAfric": 4376,
      "ĠAvenue": 4377,
      "Ġasian": 4378,
      "Ġspilled": 4379,
      "Ġspeeding": 4380,
      "Ġtext": 4381,
      "Ġtemp": 4382,
      "quit": 4383,
      "Ġdef": 4384,
      "Ġdemon": 4385,
      "Ġsocks": 4386,
      "Ġsoft": 4387,
      "Ġbrushes": 4388,
      "Ġdrivers": 4389,
      "ments": 4390,
      "Ġmacar": 4391,
      "Ġmidst": 4392,
      "Ġmountainous": 4393,
      "roll": 4394,
      "ĠBAS": 4395,
      "ĠBEA": 4396,
      "icker": 4397,
      "Ġhilly": 4398,
      "Ġdaytime": 4399,
      "Ġunable": 4400,
      "dering": 4401,
      "Ġcrossed": 4402,
      "Ġhanger": 4403,
      "REL": 4404,
      "ĠCOM": 4405,
      "Ġworld": 4406,
      "Ġprov": 4407,
      "Ġclus": 4408,
      "Ġload": 4409,
      "Ġlocked": 4410,
      "acting": 4411,
      "Ġprepare": 4412,
      "Ġperches": 4413,
      "Ġforeign": 4414,
      "Ġaged": 4415,
      "Ġdiner": 4416,
      "ĠIMA": 4417,
      "gging": 4418,
      "Ġbreaking": 4419,
      "Ġhomeless": 4420,
      "Ġlining": 4421,
      "Ġboogie": 4422,
      "Ġstating": 4423,
      "Ġattent": 4424,
      "Ġtyping": 4425,
      "Ġstew": 4426,
      "Ġsnowboards": 4427,
      "Ġposter": 4428,
      "ITC": 4429,
      "Ġcere": 4430,
      "Ġcemet": 4431,
      "ĠLOT": 4432,
      "Ġflash": 4433,
      "Ġmarkers": 4434,
      "Ġsilverware": 4435,
      "Ġmeals": 4436,
      "Ġtrio": 4437,
      "Ġtripo": 4438,
      "Ġpolit": 4439,
      "Ġexit": 4440,
      "Ġstripe": 4441,
      "ĠHAS": 4442,
      "Ġcookie": 4443,
      "Ġtoothpas": 4444,
      "ĠGAM": 4445,
      "Ġworkstation": 4446,
      "THER": 4447,
      "Ġgrand": 4448,
      "rict": 4449,
      "Ġcountryside": 4450,
      "rito": 4451,
      "these": 4452,
      "Ġbelt": 4453,
      "Ġpaddling": 4454,
      "Ġrolling": 4455,
      "Ġsofas": 4456,
      "Ġbald": 4457,
      "Ġbalance": 4458,
      "Ġwasher": 4459,
      "Ġwashing": 4460,
      "Ġburg": 4461,
      "Ġpacked": 4462,
      "Ġportion": 4463,
      "Ġextrem": 4464,
      "Ġfoam": 4465,
      "Clock": 4466,
      "lights": 4467,
      "wards": 4468,
      "Ġcrashing": 4469,
      "Ġstairway": 4470,
      "Ġoutfield": 4471,
      "Ġpowered": 4472,
      "Ġpowdered": 4473,
      "Ġfarmer": 4474,
      "Ġholders": 4475,
      "ĠVERY": 4476,
      "ĠVictor": 4477,
      "Ġapron": 4478,
      "Ġchopsticks": 4479,
      "Ġcompeting": 4480,
      "Skateboard": 4481,
      "ĠKITE": 4482,
      "Ġreturning": 4483,
      "emb": 4484,
      "Ġfollows": 4485,
      "ITTLE": 4486,
      "Ġsausages": 4487,
      "Ġmedium": 4488,
      "Ġhardwood": 4489,
      "Ġstunts": 4490,
      "Ġbackpacks": 4491,
      "Ġspraying": 4492,
      "Ġmugs": 4493,
      "Ġlaughs": 4494,
      "ĠBOY": 4495,
      "Ġbarefoot": 4496,
      "Ġdigital": 4497,
      "Ġkettle": 4498,
      "Ġoddly": 4499,
      "Ġbelly": 4500,
      "ĠSKI": 4501,
      "Ġbuttons": 4502,
      "Ġcircus": 4503,
      "Ġnumerals": 4504,
      "Ġshrub": 4505,
      "Ġconsisting": 4506,
      "Ġcheesy": 4507,
      "Batter": 4508,
      "Bathroom": 4509,
      "Ġabandoned": 4510,
      "Ġkept": 4511,
      "Ġstarting": 4512,
      "Ġradio": 4513,
      "Ġwheeled": 4514,
      "Ġwiping": 4515,
      "Ġcrane": 4516,
      "Ġfixing": 4517,
      "Ġblurred": 4518,
      "Ġleaned": 4519,
      "Ġunusual": 4520,
      "ĠGIRL": 4521,
      "Ġgrizzly": 4522,
      "Ġstormy": 4523,
      "Ġfixtures": 4524,
      "Ġhandicap": 4525,
      "Ġsplash": 4526,
      "Ġmovie": 4527,
      "Ġobserving": 4528,
      "ĠHOLDING": 4529,
      "Ġsquatting": 4530,
      "Ġlanguage": 4531,
      "feteria": 4532,
      "Ġelse": 4533,
      "Ġtongs": 4534,
      "Ġlifting": 4535,
      "Ġmajor": 4536,
      "Ġproducts": 4537,
      "Ġentertainment": 4538,
      "Broccoli": 4539,
      "culator": 4540,
      "Ġbleac": 4541,
      "ĠBATHROOM": 4542,
      "ĠFRONT": 4543,
      "Ġbalances": 4544,
      "Ġaccessories": 4545,
      "Passeng": 4546,
      "Snow": 4547,
      "Ġbiplane": 4548,
      "anadian": 4549,
      "Ġfishing": 4550,
      "Ġfoliage": 4551,
      "Ġhugging": 4552,
      "Ġtournament": 4553,
      "Ġevergreen": 4554,
      "Ġchandelier": 4555,
      "Ġairborne": 4556,
      "Ġconsole": 4557,
      "Ġmacaroni": 4558,
      "ĠBEACH": 4559,
      "ĠIMAGE": 4560,
      "Ġtripod": 4561,
      "Ġtoothpaste": 4562,
      "ĠGAME": 4563,
      "Ġextremely": 4564,
      "29": 4565,
      "AD": 4566,
      "Al": 4567,
      "App": 4568,
      "AIN": 4569,
      "AFF": 4570,
      "Br": 4571,
      "Bun": 4572,
      "Brown": 4573,
      "Baby": 4574,
      "Bird": 4575,
      "Dark": 4576,
      "Fruit": 4577,
      "Gre": 4578,
      "Hand": 4579,
      "Half": 4580,
      "Here": 4581,
      "IL": 4582,
      "ILDING": 4583,
      "Lots": 4584,
      "MO": 4585,
      "Meat": 4586,
      "ND": 4587,
      "NING": 4588,
      "PL": 4589,
      "Pedestri": 4590,
      "Play": 4591,
      "RY": 4592,
      "RAS": 4593,
      "SE": 4594,
      "SS": 4595,
      "Ste": 4596,
      "Spect": 4597,
      "TWO": 4598,
      "af": 4599,
      "aks": 4600,
      "aves": 4601,
      "ause": 4602,
      "bl": 4603,
      "boo": 4604,
      "cars": 4605,
      "cause": 4606,
      "dit": 4607,
      "did": 4608,
      "eet": 4609,
      "finished": 4610,
      "gage": 4611,
      "hu": 4612,
      "ham": 4613,
      "hand": 4614,
      "hake": 4615,
      "horn": 4616,
      "life": 4617,
      "my": 4618,
      "mes": 4619,
      "ney": 4620,
      "ost": 4621,
      "osing": 4622,
      "pizza": 4623,
      "rating": 4624,
      "si": 4625,
      "sley": 4626,
      "too": 4627,
      "tower": 4628,
      "uds": 4629,
      "uxed": 4630,
      "vet": 4631,
      "woman": 4632,
      "zens": 4633,
      "Ġ7": 4634,
      "ĠQ": 4635,
      "ĠZ": 4636,
      "ĠAn": 4637,
      "ĠZebras": 4638,
      "Ġado": 4639,
      "Ġtuxed": 4640,
      "Ġoil": 4641,
      "Ġorig": 4642,
      "Ġsat": 4643,
      "Ġsight": 4644,
      "Ġsush": 4645,
      "Ġsuck": 4646,
      "ingle": 4647,
      "Ġbin": 4648,
      "Ġbid": 4649,
      "Ġbam": 4650,
      "Ġbru": 4651,
      "Ġblaz": 4652,
      "Ġwo": 4653,
      "Ġwon": 4654,
      "Ġwand": 4655,
      "Ġwicker": 4656,
      "Ġple": 4657,
      "Ġped": 4658,
      "Ġpood": 4659,
      "Ġpump": 4660,
      "Ġpedest": 4661,
      "reme": 4662,
      "Ġcit": 4663,
      "Ġcable": 4664,
      "Ġcry": 4665,
      "Ġcuc": 4666,
      "Ġcycles": 4667,
      "ern": 4668,
      "ature": 4669,
      "ately": 4670,
      "Ġinstruction": 4671,
      "rots": 4672,
      "rofo": 4673,
      "Ġfir": 4674,
      "Ġfans": 4675,
      "Ġfast": 4676,
      "Ġfather": 4677,
      "Ġfinished": 4678,
      "Ġfolding": 4679,
      "Ġmom": 4680,
      "Ġmes": 4681,
      "Ġmel": 4682,
      "Ġmast": 4683,
      "Ġwithin": 4684,
      "Ġhi": 4685,
      "Ġhudd": 4686,
      "Ġhoney": 4687,
      "Ġgoo": 4688,
      "Ġdro": 4689,
      "Ġden": 4690,
      "Ġdol": 4691,
      "Ġdair": 4692,
      "Ġdrop": 4693,
      "Ġdiced": 4694,
      "Ġtools": 4695,
      "Ġlla": 4696,
      "alo": 4697,
      "Ġstars": 4698,
      "Ġstory": 4699,
      "rable": 4700,
      "onent": 4701,
      "lapid": 4702,
      "opard": 4703,
      "oored": 4704,
      "ider": 4705,
      "ilia": 4706,
      "ilitary": 4707,
      "illage": 4708,
      "elope": 4709,
      "urity": 4710,
      "utter": 4711,
      "Ġthru": 4712,
      "Ġbean": 4713,
      "Ġbecause": 4714,
      "rimp": 4715,
      "ripe": 4716,
      "Ġeven": 4717,
      "Ġrent": 4718,
      "Ġrepla": 4719,
      "Ġrecor": 4720,
      "Ġtram": 4721,
      "Ġcoast": 4722,
      "Ġcobble": 4723,
      "Ġrough": 4724,
      "Ġroasting": 4725,
      "vering": 4726,
      "Ġplains": 4727,
      "Ġbod": 4728,
      "Ġbound": 4729,
      "Ġbobble": 4730,
      "loy": 4731,
      "undown": 4732,
      "Ġstrewn": 4733,
      "Ġparsley": 4734,
      "Ġshred": 4735,
      "Ġshady": 4736,
      "Ġshare": 4737,
      "Ġshrimp": 4738,
      "Ġlam": 4739,
      "cept": 4740,
      "anted": 4741,
      "amic": 4742,
      "andw": 4743,
      "ums": 4744,
      "Ġvines": 4745,
      "Ġtraining": 4746,
      "keys": 4747,
      "Ġraces": 4748,
      "Ġbuggy": 4749,
      "indows": 4750,
      "stone": 4751,
      "Ġbasin": 4752,
      "Ġbathing": 4753,
      "Ġrise": 4754,
      "Ġrundown": 4755,
      "Ġplayed": 4756,
      "Ġbedding": 4757,
      "Ġsele": 4758,
      "Ġcomplete": 4759,
      "Ġware": 4760,
      "Ġroads": 4761,
      "Ġlevel": 4762,
      "Ġleopard": 4763,
      "Ġheading": 4764,
      "Ġconte": 4765,
      "Tho": 4766,
      "That": 4767,
      "Ġslanted": 4768,
      "uble": 4769,
      "ĠAve": 4770,
      "ĠAIR": 4771,
      "Ġhandles": 4772,
      "Ġboarders": 4773,
      "kshake": 4774,
      "Ġspan": 4775,
      "Ġspam": 4776,
      "apan": 4777,
      "Ġopens": 4778,
      "Ġfiretru": 4779,
      "Ġteaching": 4780,
      "Ġbanner": 4781,
      "Ġcourtyard": 4782,
      "Ġswan": 4783,
      "Ġswans": 4784,
      "Ġswung": 4785,
      "Ġdip": 4786,
      "Ġdilapid": 4787,
      "Ġbunk": 4788,
      "Ġbunny": 4789,
      "Ġsoaring": 4790,
      "Ġsocial": 4791,
      "Ġmoves": 4792,
      "aging": 4793,
      "Ġoffering": 4794,
      "dless": 4795,
      "Seven": 4796,
      "ift": 4797,
      "ifier": 4798,
      "ĠSanta": 4799,
      "dock": 4800,
      "door": 4801,
      "ĠWindows": 4802,
      "Ġgogg": 4803,
      "Ġheaded": 4804,
      "Ġviewed": 4805,
      "Ġbroc": 4806,
      "ĠBI": 4807,
      "Ġarched": 4808,
      "Ġfema": 4809,
      "Ġcontents": 4810,
      "hings": 4811,
      "Ġbesides": 4812,
      "HEN": 4813,
      "Ġunlo": 4814,
      "Ġcurved": 4815,
      "Ġguard": 4816,
      "Ġguests": 4817,
      "Ġpassed": 4818,
      "Ġcupboards": 4819,
      "ĠCLO": 4820,
      "ĠCanadian": 4821,
      "Ġcontrolled": 4822,
      "Ġprob": 4823,
      "Ġprogress": 4824,
      "Ġstock": 4825,
      "acent": 4826,
      "urned": 4827,
      "Ġknee": 4828,
      "Ġmemo": 4829,
      "Ġmechan": 4830,
      "Ġpatties": 4831,
      "someone": 4832,
      "ude": 4833,
      "Ġbaggage": 4834,
      "Ġrowing": 4835,
      "cloth": 4836,
      "Ġslicing": 4837,
      "Ġattract": 4838,
      "Ġshelving": 4839,
      "Ġsnowboarders": 4840,
      "close": 4841,
      "brush": 4842,
      "Ġwindowsill": 4843,
      "Ġforested": 4844,
      "ĠLITTLE": 4845,
      "Ġpear": 4846,
      "Ġpeering": 4847,
      "Ġpanel": 4848,
      "Ġhairbrush": 4849,
      "Ġscenic": 4850,
      "Ġflav": 4851,
      "Ġmarker": 4852,
      "Ġmarked": 4853,
      "Ġcapture": 4854,
      "Ġcafeteria": 4855,
      "Ġhelp": 4856,
      "Ġdecked": 4857,
      "Ġstripes": 4858,
      "Ġstripped": 4859,
      "ĠHAND": 4860,
      "Ġmarking": 4861,
      "ĠNEAR": 4862,
      "olli": 4863,
      "Ġwireless": 4864,
      "Ġcleaned": 4865,
      "Ġwedges": 4866,
      "bery": 4867,
      "deled": 4868,
      "Ġpickle": 4869,
      "Ġpickles": 4870,
      "Ġdistrict": 4871,
      "Ġassemb": 4872,
      "Ġgarlic": 4873,
      "Ġfaced": 4874,
      "Ġlanded": 4875,
      "ĠELE": 4876,
      "ĠEng": 4877,
      "ĠEATING": 4878,
      "Ġcrest": 4879,
      "Ġpepsi": 4880,
      "Ġsails": 4881,
      "Ġsailboat": 4882,
      "Ġpaintings": 4883,
      "Groups": 4884,
      "Ġsubur": 4885,
      "Ġpadd": 4886,
      "Ġpaddock": 4887,
      "Ġhammo": 4888,
      "ramic": 4889,
      "Ġquilt": 4890,
      "Ġcabinetry": 4891,
      "Ġburrito": 4892,
      "ĠRUN": 4893,
      "Ġinteracting": 4894,
      "Ġdolls": 4895,
      "Cattle": 4896,
      "Ġwetsuits": 4897,
      "ĠStreet": 4898,
      "Ġornament": 4899,
      "Ġwheelchair": 4900,
      "Ġopposing": 4901,
      "Boys": 4902,
      "Ġjewel": 4903,
      "letes": 4904,
      "Ġdesigns": 4905,
      "ĠKITC": 4906,
      "ĠUMB": 4907,
      "Ġtoasted": 4908,
      "Ġearly": 4909,
      "Ġoutfits": 4910,
      "Ġfollowed": 4911,
      "Ġmakeup": 4912,
      "Ġvisit": 4913,
      "Ġspots": 4914,
      "Ġsymb": 4915,
      "Ġelectrical": 4916,
      "Ġdraped": 4917,
      "Ġtrailers": 4918,
      "Ġbikini": 4919,
      "Ġbikinis": 4920,
      "Ġantelope": 4921,
      "ELD": 4922,
      "OTO": 4923,
      "OTOR": 4924,
      "UND": 4925,
      "Ġfrisbe": 4926,
      "Ġbearded": 4927,
      "Ġcelery": 4928,
      "Ġcalculator": 4929,
      "ĠBOARD": 4930,
      "OOD": 4931,
      "Ġcooks": 4932,
      "Ġsniffs": 4933,
      "Ġbutterf": 4934,
      "Ġangle": 4935,
      "Ġmopeds": 4936,
      "Ġsecurity": 4937,
      "ĠPHOTO": 4938,
      "Ġbutton": 4939,
      "Ġpineapples": 4940,
      "Kites": 4941,
      "Ġsaddle": 4942,
      "Ġdumpster": 4943,
      "Ġreception": 4944,
      "Ġbuffalo": 4945,
      "Ġsnacks": 4946,
      "Ġarrows": 4947,
      "Ġcelebrating": 4948,
      "Ġmuddy": 4949,
      "Ġstudents": 4950,
      "Ġkeep": 4951,
      "Ġextends": 4952,
      "Ġrubbing": 4953,
      "Ġseason": 4954,
      "ĠBUS": 4955,
      "ĠBUILDING": 4956,
      "Buses": 4957,
      "Ġhalves": 4958,
      "Ġcombination": 4959,
      "Ġslowly": 4960,
      "Ġremodeled": 4961,
      "Ġprinted": 4962,
      "Kids": 4963,
      "Ġawa": 4964,
      "Ġsoldiers": 4965,
      "Ġcushions": 4966,
      "Ġmosquit": 4967,
      "ĠFIELD": 4968,
      "Ġadorned": 4969,
      "Ġautom": 4970,
      "Ġmassive": 4971,
      "Ġtossing": 4972,
      "Ġeasy": 4973,
      "Ġdescri": 4974,
      "Ġadjacent": 4975,
      "Ġorganized": 4976,
      "Ġfurnishings": 4977,
      "Picture": 4978,
      "Ġceramic": 4979,
      "Ġmuffin": 4980,
      "Ġgeese": 4981,
      "Ġskills": 4982,
      "Ġchalkboard": 4983,
      "Ġlearning": 4984,
      "Ġwindsurf": 4985,
      "ĠWHITE": 4986,
      "Ġartistic": 4987,
      "Computer": 4988,
      "Ġtidy": 4989,
      "Ġtusked": 4990,
      "Ġcramped": 4991,
      "Ġdashboard": 4992,
      "Ġemploy": 4993,
      "Ġelaborate": 4994,
      "Ġdemonst": 4995,
      "RELLA": 4996,
      "Ġcluster": 4997,
      "Ġshrubbery": 4998,
      "Ġbleachers": 4999,
      "Apples": 5000,
      "Grey": 5001,
      "Pedestrians": 5002,
      "Spectators": 5003,
      "ditional": 5004,
      "Ġadorable": 5005,
      "Ġsushi": 5006,
      "Ġbidet": 5007,
      "Ġbamboo": 5008,
      "Ġpoodle": 5009,
      "Ġpedestal": 5010,
      "rofoam": 5011,
      "Ġdairy": 5012,
      "Ġllama": 5013,
      "Ġcobblestone": 5014,
      "Ġcontemp": 5015,
      "Ġdilapidated": 5016,
      "Ġgoggles": 5017,
      "Ġfemales": 5018,
      "Ġjewelry": 5019,
      "ĠKITCHEN": 5020,
      "ĠUMBRELLA": 5021,
      "Ġmosquito": 5022,
      "AV": 5023,
      "AY": 5024,
      "All": 5025,
      "BO": 5026,
      "Bre": 5027,
      "Blender": 5028,
      "Bunch": 5029,
      "Che": 5030,
      "Crow": 5031,
      "Cute": 5032,
      "EM": 5033,
      "Em": 5034,
      "Fe": 5035,
      "Fire": 5036,
      "Fancy": 5037,
      "HT": 5038,
      "Hot": 5039,
      "IM": 5040,
      "IV": 5041,
      "IZ": 5042,
      "ILE": 5043,
      "ICK": 5044,
      "Jo": 5045,
      "Le": 5046,
      "Luggage": 5047,
      "LYING": 5048,
      "ORE": 5049,
      "OUN": 5050,
      "PT": 5051,
      "Pit": 5052,
      "Pla": 5053,
      "Pol": 5054,
      "PING": 5055,
      "PLA": 5056,
      "Pod": 5057,
      "Parking": 5058,
      "Re": 5059,
      "Signs": 5060,
      "To": 5061,
      "UE": 5062,
      "UL": 5063,
      "UCK": 5064,
      "Very": 5065,
      "ZA": 5066,
      "ache": 5067,
      "apped": 5068,
      "aila": 5069,
      "black": 5070,
      "bee": 5071,
      "barrow": 5072,
      "bucks": 5073,
      "cla": 5074,
      "cot": 5075,
      "cut": 5076,
      "cake": 5077,
      "cooked": 5078,
      "count": 5079,
      "des": 5080,
      "ew": 5081,
      "ead": 5082,
      "five": 5083,
      "gle": 5084,
      "gur": 5085,
      "iw": 5086,
      "ixt": 5087,
      "ives": 5088,
      "lvis": 5089,
      "live": 5090,
      "lined": 5091,
      "mall": 5092,
      "mel": 5093,
      "mtra": 5094,
      "ox": 5095,
      "oke": 5096,
      "ode": 5097,
      "oise": 5098,
      "pr": 5099,
      "pie": 5100,
      "port": 5101,
      "park": 5102,
      "paper": 5103,
      "rup": 5104,
      "rus": 5105,
      "sers": 5106,
      "spe": 5107,
      "ti": 5108,
      "tal": 5109,
      "test": 5110,
      "turned": 5111,
      "uing": 5112,
      "ueb": 5113,
      "ucc": 5114,
      "uated": 5115,
      "uquet": 5116,
      "vd": 5117,
      "vil": 5118,
      "vanna": 5119,
      "ws": 5120,
      "wal": 5121,
      "yl": 5122,
      "yond": 5123,
      "zard": 5124,
      "Ġ&": 5125,
      "Ġ,": 5126,
      "Ġ5": 5127,
      "Ġvert": 5128,
      "inery": 5129,
      "Ġtrough": 5130,
      "Ġtee": 5131,
      "Ġtap": 5132,
      "Ġtiss": 5133,
      "Ġtuck": 5134,
      "Ġtanger": 5135,
      "Ġtilted": 5136,
      "Ġox": 5137,
      "Ġocc": 5138,
      "Ġoper": 5139,
      "Ġovers": 5140,
      "Ġolive": 5141,
      "Ġsan": 5142,
      "Ġsol": 5143,
      "Ġsigh": 5144,
      "Ġsipp": 5145,
      "inger": 5146,
      "itan": 5147,
      "itor": 5148,
      "itter": 5149,
      "itude": 5150,
      "Ġbab": 5151,
      "Ġbund": 5152,
      "Ġbomb": 5153,
      "Ġwill": 5154,
      "Ġwife": 5155,
      "Ġwash": 5156,
      "hedr": 5157,
      "Ġpon": 5158,
      "Ġpir": 5159,
      "Ġpil": 5160,
      "Ġpac": 5161,
      "Ġpushed": 5162,
      "anse": 5163,
      "res": 5164,
      "rew": 5165,
      "rees": 5166,
      "Ġcall": 5167,
      "Ġcil": 5168,
      "Ġcher": 5169,
      "Ġcri": 5170,
      "Ġcycle": 5171,
      "Ġcent": 5172,
      "Ġcans": 5173,
      "Ġcudd": 5174,
      "Ġcaged": 5175,
      "eries": 5176,
      "atic": 5177,
      "atter": 5178,
      "atten": 5179,
      "Ġinj": 5180,
      "Ġinstru": 5181,
      "rome": 5182,
      "Ġfle": 5183,
      "Ġfut": 5184,
      "Ġfrying": 5185,
      "Ġfond": 5186,
      "ishes": 5187,
      "Ġanch": 5188,
      "Ġmin": 5189,
      "Ġmor": 5190,
      "Ġmill": 5191,
      "Ġmoored": 5192,
      "Ġhip": 5193,
      "ening": 5194,
      "Ġgla": 5195,
      "Ġgun": 5196,
      "Ġgated": 5197,
      "Ġgoose": 5198,
      "Ġda": 5199,
      "Ġdust": 5200,
      "Ġtoday": 5201,
      "Ġloung": 5202,
      "Ġlast": 5203,
      "ald": 5204,
      "aling": 5205,
      "alle": 5206,
      "Ġstable": 5207,
      "Ġstare": 5208,
      "Ġstowed": 5209,
      "oms": 5210,
      "omebo": 5211,
      "orting": 5212,
      "orld": 5213,
      "etal": 5214,
      "ette": 5215,
      "lain": 5216,
      "unching": 5217,
      "Ġnow": 5218,
      "open": 5219,
      "oped": 5220,
      "Ġmans": 5221,
      "Ġmanne": 5222,
      "aster": 5223,
      "Ġsituated": 5224,
      "child": 5225,
      "chief": 5226,
      "ildings": 5227,
      "iche": 5228,
      "icle": 5229,
      "icine": 5230,
      "icip": 5231,
      "olly": 5232,
      "olitan": 5233,
      "Ġareas": 5234,
      "usting": 5235,
      "Ġthink": 5236,
      "Ġbeyond": 5237,
      "herd": 5238,
      "rial": 5239,
      "Ġrec": 5240,
      "Ġreg": 5241,
      "Ġreal": 5242,
      "Ġrecl": 5243,
      "arded": 5244,
      "Ġcock": 5245,
      "Ġcoats": 5246,
      "Ġcozy": 5247,
      "Ġcocon": 5248,
      "Ġcould": 5249,
      "Ġrounding": 5250,
      "Ġroaming": 5251,
      "Ġboul": 5252,
      "Ġbouquet": 5253,
      "Ġdozen": 5254,
      "undy": 5255,
      "Ġplush": 5256,
      "Ġplated": 5257,
      "Ġplank": 5258,
      "Ġplowing": 5259,
      "Ġtablecloth": 5260,
      "Ġparts": 5261,
      "Ġshake": 5262,
      "Ġshaded": 5263,
      "Ġshorn": 5264,
      "Ġshaved": 5265,
      "Ġgrabs": 5266,
      "Ġgravy": 5267,
      "celain": 5268,
      "nty": 5269,
      "Ġchang": 5270,
      "antro": 5271,
      "amon": 5272,
      "Ġcathedr": 5273,
      "ummy": 5274,
      "Ġvests": 5275,
      "Ġsomewhere": 5276,
      "ulif": 5277,
      "Ġflop": 5278,
      "Ġflips": 5279,
      "Ġflushing": 5280,
      "Ġsidewal": 5281,
      "Ġraw": 5282,
      "Ġsignage": 5283,
      "Ġsignals": 5284,
      "stand": 5285,
      "Ġblackboard": 5286,
      "ights": 5287,
      "elly": 5288,
      "Ġsnap": 5289,
      "ueens": 5290,
      "Ġbases": 5291,
      "Ġbasic": 5292,
      "Ġwaterfront": 5293,
      "Ġwatermel": 5294,
      "Ġrising": 5295,
      "Ġpokes": 5296,
      "zzled": 5297,
      "Ġforks": 5298,
      "Ġairline": 5299,
      "Ġherbs": 5300,
      "Ġgreenery": 5301,
      "Ġlicks": 5302,
      "Ġlives": 5303,
      "Ġjam": 5304,
      "Ġjung": 5305,
      "Ġskater": 5306,
      "umbers": 5307,
      "Ġsex": 5308,
      "Ġseed": 5309,
      "Ġcomple": 5310,
      "Ġcompact": 5311,
      "Ġbend": 5312,
      "Ġoverg": 5313,
      "Ġwading": 5314,
      "Ġwaving": 5315,
      "Ġclocktower": 5316,
      "Ġleashed": 5317,
      "Ġeatery": 5318,
      "Ġweird": 5319,
      "Ġtowed": 5320,
      "Ġtowers": 5321,
      "Ġconvers": 5322,
      "Ġconvey": 5323,
      "Ġmenu": 5324,
      "Ġslide": 5325,
      "ously": 5326,
      "Ġalumin": 5327,
      "rowns": 5328,
      "ĠAir": 5329,
      "ĠAdid": 5330,
      "ĠAmtra": 5331,
      "Ġlighthouse": 5332,
      "Ġwallpaper": 5333,
      "eech": 5334,
      "Ġsandals": 5335,
      "Ġscale": 5336,
      "rise": 5337,
      "Ġspire": 5338,
      "Ġspeech": 5339,
      "quins": 5340,
      "quoise": 5341,
      "Ġdec": 5342,
      "ational": 5343,
      "Ġfloats": 5344,
      "Ġtreat": 5345,
      "Ġbunt": 5346,
      "Ġcellular": 5347,
      "eaten": 5348,
      "Ġsoaked": 5349,
      "Ġbrand": 5350,
      "Ġfences": 5351,
      "ago": 5352,
      "ipe": 5353,
      "Ġcutter": 5354,
      "ĠSOM": 5355,
      "ĠSUR": 5356,
      "ĠWI": 5357,
      "ĠWorld": 5358,
      "Ġappe": 5359,
      "Ġmirrored": 5360,
      "IND": 5361,
      "Ġflowing": 5362,
      "Ġmaker": 5363,
      "angular": 5364,
      "Ġbroth": 5365,
      "Ġfully": 5366,
      "Ġstations": 5367,
      "ĠBM": 5368,
      "ĠBR": 5369,
      "ĠBED": 5370,
      "Ġsaw": 5371,
      "Ġsavanna": 5372,
      "Ġcord": 5373,
      "Ġcords": 5374,
      "Ġchest": 5375,
      "Ġfeel": 5376,
      "vender": 5377,
      "Ġsunsh": 5378,
      "Ġcontra": 5379,
      "Ġbest": 5380,
      "arium": 5381,
      "Ġunison": 5382,
      "Ġunfinished": 5383,
      "Ġuncooked": 5384,
      "Ġcurious": 5385,
      "Ġpassanger": 5386,
      "Ġtheme": 5387,
      "Ġsloppy": 5388,
      "ĠFrisb": 5389,
      "ĠFOOD": 5390,
      "ĠFLYING": 5391,
      "corated": 5392,
      "ĠCar": 5393,
      "ĠCal": 5394,
      "ĠCELL": 5395,
      "Ġemb": 5396,
      "Ġmonkey": 5397,
      "Ġpromin": 5398,
      "Ġprotru": 5399,
      "Ġprotest": 5400,
      "Ġcliff": 5401,
      "Ġlogs": 5402,
      "Ġloaf": 5403,
      "Ġstoves": 5404,
      "Ġstocked": 5405,
      "ustang": 5406,
      "ustrial": 5407,
      "Ġdecoration": 5408,
      "tender": 5409,
      "akfast": 5410,
      "ĠPL": 5411,
      "ĠPIZ": 5412,
      "Ġdiners": 5413,
      "Ġknives": 5414,
      "Ġmeas": 5415,
      "Ġpatches": 5416,
      "ĠIT": 5417,
      "ĠInd": 5418,
      "Ġpotato": 5419,
      "graph": 5420,
      "Ġbricked": 5421,
      "othic": 5422,
      "Ġplanter": 5423,
      "Ġplanters": 5424,
      "Ġsteak": 5425,
      "tock": 5426,
      "Ġcheesecake": 5427,
      "estic": 5428,
      "Ġposts": 5429,
      "ĠMc": 5430,
      "ĠMex": 5431,
      "ĠMOTOR": 5432,
      "ĠMustang": 5433,
      "Ġpurses": 5434,
      "ANE": 5435,
      "Ġpiles": 5436,
      "Ġresid": 5437,
      "ĠLAR": 5438,
      "Ġpeace": 5439,
      "Ġpeak": 5440,
      "Ġhaircut": 5441,
      "Ġgreat": 5442,
      "Ġsalon": 5443,
      "Ġtube": 5444,
      "Ġcapt": 5445,
      "Ġcapped": 5446,
      "Ġcaption": 5447,
      "Ġcaulif": 5448,
      "Ġhelps": 5449,
      "Ġtrip": 5450,
      "Ġexam": 5451,
      "Ġexerc": 5452,
      "Ġedges": 5453,
      "izing": 5454,
      "Ġmarks": 5455,
      "Ġmaroon": 5456,
      "Ġpaj": 5457,
      "Ġpaus": 5458,
      "Ġpared": 5459,
      "Ġpaired": 5460,
      "Ġwhen": 5461,
      "ĠDo": 5462,
      "Ġcommun": 5463,
      "ĠGRAS": 5464,
      "Ġworker": 5465,
      "ĠINSIDE": 5466,
      "Ġwedge": 5467,
      "Ġsquad": 5468,
      "Ġmilkshake": 5469,
      "Ġgrind": 5470,
      "Ġnote": 5471,
      "Ġnothing": 5472,
      "Ġswims": 5473,
      "Ġlayered": 5474,
      "Ġspecial": 5475,
      "Ġpathway": 5476,
      "ROW": 5477,
      "Ġshapes": 5478,
      "Ġwildlife": 5479,
      "Ġcarrier": 5480,
      "Ġpartly": 5481,
      "ensive": 5482,
      "acters": 5483,
      "ARK": 5484,
      "Ġblocks": 5485,
      "Ġmachinery": 5486,
      "Ġsmartphone": 5487,
      "Ġdrawing": 5488,
      "Ġartwork": 5489,
      "Ġwashed": 5490,
      "Ġwrites": 5491,
      "Ġdeserted": 5492,
      "Ġtinted": 5493,
      "Ġturns": 5494,
      "Ġtier": 5495,
      "Ġpointed": 5496,
      "Ġpointy": 5497,
      "ĠiPod": 5498,
      "Ġkneels": 5499,
      "Ġcrafts": 5500,
      "Ġlowered": 5501,
      "Ġstaircase": 5502,
      "Ġ11": 5503,
      "ropolitan": 5504,
      "Ġmustache": 5505,
      "Ġwheelbarrow": 5506,
      "Ġrelaxes": 5507,
      "Ġoverlooks": 5508,
      "Ġblocking": 5509,
      "Ġjean": 5510,
      "Ġamongst": 5511,
      "Ġframed": 5512,
      "Ġcostumes": 5513,
      "ĠUP": 5514,
      "Ġmixing": 5515,
      "Ġglowing": 5516,
      "Ġcollect": 5517,
      "ibly": 5518,
      "Ġcroche": 5519,
      "Ġyogur": 5520,
      "Ġspotted": 5521,
      "Ġcloths": 5522,
      "plane": 5523,
      "Ġpoliceman": 5524,
      "Ġletters": 5525,
      "Ġmedicine": 5526,
      "Ġshoulders": 5527,
      "Ġutensil": 5528,
      "Covered": 5529,
      "OWER": 5530,
      "Ġturquoise": 5531,
      "Ġwrap": 5532,
      "Ġcards": 5533,
      "Ġcubs": 5534,
      "Ġinstead": 5535,
      "Ġfalls": 5536,
      "Ġdeliver": 5537,
      "Ġcarpeted": 5538,
      "Ġbuckets": 5539,
      "Ġsweatshirt": 5540,
      "Ġentering": 5541,
      "Comm": 5542,
      "like": 5543,
      "Ġlifegu": 5544,
      "ĠBOAT": 5545,
      "Ġphotographed": 5546,
      "Ġpetals": 5547,
      "Ġcooler": 5548,
      "Ġcoolers": 5549,
      "Ġparasol": 5550,
      "Ġparasailing": 5551,
      "Ġstoplights": 5552,
      "ĠSKATE": 5553,
      "Banana": 5554,
      "Girls": 5555,
      "Ġsizes": 5556,
      "Ġpigeon": 5557,
      "Ġminiature": 5558,
      "Ġnumeral": 5559,
      "Ġreceiver": 5560,
      "Ġdispensers": 5561,
      "ĠTRUCK": 5562,
      "Ġpresident": 5563,
      "Ġcheeses": 5564,
      "Ġcelebrates": 5565,
      "IGN": 5566,
      "Surfer": 5567,
      "Surfers": 5568,
      "ĠJapan": 5569,
      "Ġberry": 5570,
      "Ġstudent": 5571,
      "Ġeverywhere": 5572,
      "Ġeverything": 5573,
      "Ġexpress": 5574,
      "Ġexpanse": 5575,
      "minster": 5576,
      "Ġporcelain": 5577,
      "Ġrubber": 5578,
      "Ġcharacters": 5579,
      "Ġseagulls": 5580,
      "Ġchefs": 5581,
      "ĠOUTSIDE": 5582,
      "ĠGIRAFF": 5583,
      "Beach": 5584,
      "Outside": 5585,
      "Outdoor": 5586,
      "Ġpallet": 5587,
      "Ġcushion": 5588,
      "Ġthose": 5589,
      "Ġpossibly": 5590,
      "Ġarchite": 5591,
      "Ġcomfortable": 5592,
      "Ġdepicting": 5593,
      "Bicycle": 5594,
      "Road": 5595,
      "Ġindic": 5596,
      "Ġindustrial": 5597,
      "Ġblinds": 5598,
      "Ġseparate": 5599,
      "Ġmotorbike": 5600,
      "Ġmotorbikes": 5601,
      "ĠWATER": 5602,
      "ĠWATCH": 5603,
      "ĠGROUP": 5604,
      "Ġsleek": 5605,
      "Ġsleeve": 5606,
      "Slices": 5607,
      "urope": 5608,
      "Ġidly": 5609,
      "innamon": 5610,
      "Ġtrot": 5611,
      "Ġslab": 5612,
      "Ġsells": 5613,
      "Ġbandana": 5614,
      "restling": 5615,
      "Ġfairly": 5616,
      "rabilia": 5617,
      "Ġathlete": 5618,
      "Ġgrocery": 5619,
      "Ġpocket": 5620,
      "ĠTREE": 5621,
      "ĠSUV": 5622,
      "ĠWestminster": 5623,
      "Ġemergen": 5624,
      "Ġmemor": 5625,
      "Ġpeanut": 5626,
      "Ġmaterials": 5627,
      "Ġparents": 5628,
      "Ġquickly": 5629,
      "Ġmagazines": 5630,
      "Assorted": 5631,
      "Laptop": 5632,
      "Modern": 5633,
      "PHAN": 5634,
      "Scissors": 5635,
      "Vehic": 5636,
      "horses": 5637,
      "ĠThames": 5638,
      "Ġavaila": 5639,
      "Ġaquarium": 5640,
      "Ġtattoo": 5641,
      "Ġonlookers": 5642,
      "Ġmusic": 5643,
      "Ġhurdle": 5644,
      "Ġstrings": 5645,
      "Ġstomach": 5646,
      "Ġthumbs": 5647,
      "Ġrenov": 5648,
      "Ġrobot": 5649,
      "Ġskinny": 5650,
      "ĠAfrican": 5651,
      "ĠBASE": 5652,
      "Ġprovide": 5653,
      "Ġattentively": 5654,
      "Ġcereal": 5655,
      "Ġflashlight": 5656,
      "Ġpolitical": 5657,
      "Ġburgundy": 5658,
      "ĠVictorian": 5659,
      "ĠSKIING": 5660,
      "Passengers": 5661,
      "Bunches": 5662,
      "NDER": 5663,
      "blue": 5664,
      "hua": 5665,
      "ĠQueens": 5666,
      "Ġtuxedo": 5667,
      "Ġsucking": 5668,
      "Ġbruised": 5669,
      "Ġplenty": 5670,
      "Ġinstructions": 5671,
      "Ġfirst": 5672,
      "Ġhiking": 5673,
      "Ġdolph": 5674,
      "Ġevening": 5675,
      "Ġreplaced": 5676,
      "Ġrecording": 5677,
      "Ġshredded": 5678,
      "andwich": 5679,
      "Ġselection": 5680,
      "Ġwarehouse": 5681,
      "Those": 5682,
      "Ġfiretruck": 5683,
      "Ġbrocolli": 5684,
      "ĠBIKE": 5685,
      "ĠCLOCK": 5686,
      "Ġprobably": 5687,
      "Ġstockings": 5688,
      "Ġmemorabilia": 5689,
      "Ġmechanical": 5690,
      "ĠELEPHAN": 5691,
      "Ġpaddles": 5692,
      "Ġhammock": 5693,
      "ĠRUNNING": 5694,
      "Ġsymbol": 5695,
      "Ġawaiting": 5696,
      "Ġdemonstrating": 5697,
      "Breakfast": 5698,
      "Empty": 5699,
      "Female": 5700,
      "country": 5701,
      "piece": 5702,
      "Ġtissue": 5703,
      "Ġsippy": 5704,
      "Ġpacifier": 5705,
      "Ġcilantro": 5706,
      "attended": 5707,
      "Ġfondant": 5708,
      "Ġanchored": 5709,
      "Ġmorning": 5710,
      "omebody": 5711,
      "Ġmannequins": 5712,
      "Ġcathedral": 5713,
      "Ġsidewalks": 5714,
      "Ġlivestock": 5715,
      "Ġjungle": 5716,
      "Ġaluminum": 5717,
      "ĠAdidas": 5718,
      "Ġsavannah": 5719,
      "Ġsunshine": 5720,
      "ĠPIZZA": 5721,
      "ĠMexican": 5722,
      "ĠLARGE": 5723,
      "Ġcauliflower": 5724,
      "ĠGRASS": 5725,
      "Ġyogurt": 5726,
      "Ġavailable": 5727,
      "09": 5728,
      "25": 5729,
      "Ar": 5730,
      "Air": 5731,
      "AIR": 5732,
      "AKING": 5733,
      "Bi": 5734,
      "Bu": 5735,
      "Big": 5736,
      "Bread": 5737,
      "BALL": 5738,
      "CE": 5739,
      "CT": 5740,
      "Cl": 5741,
      "Cut": 5742,
      "DS": 5743,
      "De": 5744,
      "Din": 5745,
      "Eld": 5746,
      "Fre": 5747,
      "Fam": 5748,
      "French": 5749,
      "Go": 5750,
      "Gar": 5751,
      "Her": 5752,
      "Im": 5753,
      "IDING": 5754,
      "Kite": 5755,
      "LD": 5756,
      "Mother": 5757,
      "MALL": 5758,
      "Metal": 5759,
      "NS": 5760,
      "Not": 5761,
      "Night": 5762,
      "Nice": 5763,
      "NOW": 5764,
      "Numer": 5765,
      "New": 5766,
      "Or": 5767,
      "Over": 5768,
      "Off": 5769,
      "Oran": 5770,
      "Open": 5771,
      "Pa": 5772,
      "Pro": 5773,
      "Pack": 5774,
      "Past": 5775,
      "PEOPLE": 5776,
      "Row": 5777,
      "Rows": 5778,
      "Rail": 5779,
      "Sp": 5780,
      "Side": 5781,
      "Sub": 5782,
      "Suit": 5783,
      "Something": 5784,
      "School": 5785,
      "Sail": 5786,
      "Single": 5787,
      "Somebody": 5788,
      "Tw": 5789,
      "Tall": 5790,
      "Tru": 5791,
      "TER": 5792,
      "UB": 5793,
      "Un": 5794,
      "VD": 5795,
      "Vase": 5796,
      "With": 5797,
      "Work": 5798,
      "What": 5799,
      "au": 5800,
      "aic": 5801,
      "aign": 5802,
      "ailer": 5803,
      "band": 5804,
      "can": 5805,
      "cil": 5806,
      "cases": 5807,
      "down": 5808,
      "dant": 5809,
      "dges": 5810,
      "dale": 5811,
      "eing": 5812,
      "een": 5813,
      "fol": 5814,
      "fire": 5815,
      "fto": 5816,
      "father": 5817,
      "field": 5818,
      "gar": 5819,
      "gway": 5820,
      "gly": 5821,
      "gerat": 5822,
      "hot": 5823,
      "hus": 5824,
      "hore": 5825,
      "hak": 5826,
      "hift": 5827,
      "ivision": 5828,
      "iently": 5829,
      "ibrary": 5830,
      "ka": 5831,
      "kers": 5832,
      "large": 5833,
      "lvd": 5834,
      "men": 5835,
      "mers": 5836,
      "may": 5837,
      "mult": 5838,
      "mint": 5839,
      "mmed": 5840,
      "nate": 5841,
      "nze": 5842,
      "ora": 5843,
      "oys": 5844,
      "obile": 5845,
      "oramic": 5846,
      "pan": 5847,
      "pace": 5848,
      "rin": 5849,
      "sion": 5850,
      "shed": 5851,
      "sized": 5852,
      "sely": 5853,
      "ton": 5854,
      "til": 5855,
      "tate": 5856,
      "town": 5857,
      "tie": 5858,
      "teddy": 5859,
      "tHE": 5860,
      "ttes": 5861,
      "uin": 5862,
      "ula": 5863,
      "uting": 5864,
      "ules": 5865,
      "ually": 5866,
      "uvet": 5867,
      "vo": 5868,
      "vas": 5869,
      "vily": 5870,
      "wk": 5871,
      "wall": 5872,
      "water": 5873,
      "what": 5874,
      "yle": 5875,
      "yed": 5876,
      "young": 5877,
      "ĠĠ": 5878,
      "Ġer": 5879,
      "Ġes": 5880,
      "Ġir": 5881,
      "ĠThere": 5882,
      "ĠMan": 5883,
      "ĠRO": 5884,
      "Ġident": 5885,
      "Ġiced": 5886,
      "Ġaboard": 5887,
      "Ġaler": 5888,
      "Ġable": 5889,
      "Ġawards": 5890,
      "ino": 5891,
      "Ġtel": 5892,
      "Ġtying": 5893,
      "Ġtug": 5894,
      "Ġtell": 5895,
      "Ġtim": 5896,
      "Ġtric": 5897,
      "Ġtasting": 5898,
      "Ġoak": 5899,
      "Ġoars": 5900,
      "Ġostri": 5901,
      "Ġses": 5902,
      "Ġsum": 5903,
      "ita": 5904,
      "its": 5905,
      "ities": 5906,
      "itive": 5907,
      "Ġba": 5908,
      "Ġbla": 5909,
      "Ġbarge": 5910,
      "Ġbump": 5911,
      "Ġburn": 5912,
      "Ġbones": 5913,
      "Ġwoo": 5914,
      "Ġwrist": 5915,
      "Ġwok": 5916,
      "Ġwrestling": 5917,
      "hell": 5918,
      "Ġpop": 5919,
      "Ġpane": 5920,
      "Ġpush": 5921,
      "Ġpric": 5922,
      "Ġpads": 5923,
      "Ġpork": 5924,
      "ready": 5925,
      "reary": 5926,
      "Ġcla": 5927,
      "Ġcrowns": 5928,
      "Ġcinnamon": 5929,
      "levision": 5930,
      "eras": 5931,
      "erry": 5932,
      "erican": 5933,
      "erior": 5934,
      "Ġones": 5935,
      "Ġonline": 5936,
      "ath": 5937,
      "attered": 5938,
      "Ġinf": 5939,
      "Ġinform": 5940,
      "arse": 5941,
      "aration": 5942,
      "arbucks": 5943,
      "routs": 5944,
      "robe": 5945,
      "Ġthen": 5946,
      "Ġthese": 5947,
      "Ġfin": 5948,
      "Ġfat": 5949,
      "Ġfab": 5950,
      "Ġfind": 5951,
      "Ġfell": 5952,
      "Ġfine": 5953,
      "Ġfest": 5954,
      "Ġfinis": 5955,
      "Ġmer": 5956,
      "Ġmul": 5957,
      "Ġmint": 5958,
      "Ġmask": 5959,
      "Ġmixt": 5960,
      "Ġhom": 5961,
      "Ġhut": 5962,
      "Ġhour": 5963,
      "Ġga": 5964,
      "Ġges": 5965,
      "Ġgir": 5966,
      "Ġgall": 5967,
      "Ġgot": 5968,
      "Ġgown": 5969,
      "Ġgone": 5970,
      "Ġdw": 5971,
      "Ġdot": 5972,
      "Ġdying": 5973,
      "Ġdone": 5974,
      "Ġdorm": 5975,
      "Ġdime": 5976,
      "Ġdual": 5977,
      "Ġdense": 5978,
      "Ġduvet": 5979,
      "Ġdreary": 5980,
      "Ġtouched": 5981,
      "Ġlun": 5982,
      "Ġlanes": 5983,
      "Ġlinger": 5984,
      "alt": 5985,
      "alay": 5986,
      "Ġstting": 5987,
      "Ġstay": 5988,
      "Ġstart": 5989,
      "Ġstones": 5990,
      "Ġstroll": 5991,
      "oming": 5992,
      "ray": 5993,
      "rapo": 5994,
      "onal": 5995,
      "orary": 5996,
      "etro": 5997,
      "unction": 5998,
      "irds": 5999,
      "irgin": 6000,
      "Ġnur": 6001,
      "Ġnam": 6002,
      "Ġnine": 6003,
      "opped": 6004,
      "tinguis": 6005,
      "oosing": 6006,
      "ooth": 6007,
      "ided": 6008,
      "Ġneed": 6009,
      "Ġneeds": 6010,
      "Ġnegle": 6011,
      "ilting": 6012,
      "eline": 6013,
      "ote": 6014,
      "urmet": 6015,
      "uters": 6016,
      "Ġwhit": 6017,
      "Ġwhip": 6018,
      "Ġwhipped": 6019,
      "ersby": 6020,
      "Ġarena": 6021,
      "Ġthrew": 6022,
      "Ġbee": 6023,
      "Ġbeat": 6024,
      "Ġbegin": 6025,
      "rian": 6026,
      "rible": 6027,
      "riotic": 6028,
      "Ġeag": 6029,
      "Ġegre": 6030,
      "Ġreve": 6031,
      "Ġrese": 6032,
      "Ġrect": 6033,
      "Ġreigns": 6034,
      "Ġtrave": 6035,
      "Ġcob": 6036,
      "Ġroute": 6037,
      "Ġskull": 6038,
      "adent": 6039,
      "adison": 6040,
      "Ġboom": 6041,
      "Ġdozens": 6042,
      "Ġkiss": 6043,
      "Ġkio": 6044,
      "Ġkiw": 6045,
      "Ġkhak": 6046,
      "They": 6047,
      "undred": 6048,
      "undry": 6049,
      "iles": 6050,
      "oodmay": 6051,
      "Ġplumb": 6052,
      "Ġtabletop": 6053,
      "Ġparrots": 6054,
      "Ġparalle": 6055,
      "Ġshaker": 6056,
      "Ġlaz": 6057,
      "Ġlaunch": 6058,
      "Ġlamb": 6059,
      "Ġlavender": 6060,
      "Ġlaundry": 6061,
      "Ġgrave": 6062,
      "Ġyield": 6063,
      "Ġchip": 6064,
      "Ġchinese": 6065,
      "Ġchamp": 6066,
      "Ġchrome": 6067,
      "Ġchoosing": 6068,
      "ami": 6069,
      "amas": 6070,
      "Ġpersonnel": 6071,
      "Ġsmelling": 6072,
      "Ġbatch": 6073,
      "Ġupsc": 6074,
      "Ġupturned": 6075,
      "achment": 6076,
      "Ġpies": 6077,
      "Ġgroups": 6078,
      "Ġvane": 6079,
      "Ġvans": 6080,
      "Ġvast": 6081,
      "Ġvending": 6082,
      "Ġvillage": 6083,
      "Ġclosely": 6084,
      "Ġsomewhat": 6085,
      "Ġnearly": 6086,
      "seeing": 6087,
      "Ġflush": 6088,
      "Ġflank": 6089,
      "Ġflipped": 6090,
      "Ġrag": 6091,
      "Ġraquet": 6092,
      "Ġraising": 6093,
      "Ġbubble": 6094,
      "Ġparka": 6095,
      "Ġparks": 6096,
      "stal": 6097,
      "story": 6098,
      "acks": 6099,
      "ugly": 6100,
      "ains": 6101,
      "Ġblood": 6102,
      "Ġblows": 6103,
      "Ġblueb": 6104,
      "Ġhash": 6105,
      "Ġwatery": 6106,
      "redible": 6107,
      "Ġbathrobe": 6108,
      "Ġkits": 6109,
      "Ġrust": 6110,
      "Ġsnowing": 6111,
      "phalt": 6112,
      "Ġpoor": 6113,
      "Ġpoking": 6114,
      "Ġpodi": 6115,
      "Ġpoised": 6116,
      "Ġmotes": 6117,
      "Ġmotel": 6118,
      "Ġmotoc": 6119,
      "Ġlizard": 6120,
      "Ġjous": 6121,
      "Ġjelly": 6122,
      "umber": 6123,
      "Ġseven": 6124,
      "Ġsewing": 6125,
      "Ġsegway": 6126,
      "Ġbackhand": 6127,
      "Ġcompan": 6128,
      "Ġdest": 6129,
      "ieving": 6130,
      "Ġzuc": 6131,
      "Ġwax": 6132,
      "epad": 6133,
      "Ġled": 6134,
      "Ġlead": 6135,
      "Ġlefto": 6136,
      "Ġtoilette": 6137,
      "Ġtoiletries": 6138,
      "Ġcityscape": 6139,
      "irlines": 6140,
      "Ġheight": 6141,
      "enta": 6142,
      "Ġconfe": 6143,
      "Ġconstru": 6144,
      "Ġcongre": 6145,
      "Ġmotorcyclist": 6146,
      "Ġcouples": 6147,
      "pper": 6148,
      "Ġalready": 6149,
      "Ġsheering": 6150,
      "ĠAL": 6151,
      "ĠArab": 6152,
      "ĠAirlines": 6153,
      "Ġhanded": 6154,
      "Ġhandlers": 6155,
      "Ġhandker": 6156,
      "eeled": 6157,
      "Ġintric": 6158,
      "Ġboardwalk": 6159,
      "Ġasphalt": 6160,
      "Ġscra": 6161,
      "Ġscape": 6162,
      "Ġscattered": 6163,
      "Ġunders": 6164,
      "Ġlittered": 6165,
      "Ġspre": 6166,
      "Ġspill": 6167,
      "Ġspacious": 6168,
      "Ġsprouts": 6169,
      "apot": 6170,
      "box": 6171,
      "Ġtech": 6172,
      "Ġteac": 6173,
      "Ġteapot": 6174,
      "ortant": 6175,
      "Ġbanquet": 6176,
      "Ġtagged": 6177,
      "ĠTree": 6178,
      "ĠTennis": 6179,
      "ĠTALKING": 6180,
      "ĠTWO": 6181,
      "Ġdevis": 6182,
      "play": 6183,
      "Ġsweet": 6184,
      "Ġdipping": 6185,
      "Ġbrushed": 6186,
      "Ġenc": 6187,
      "Ġends": 6188,
      "Ġenorm": 6189,
      "agers": 6190,
      "agne": 6191,
      "Ġhyr": 6192,
      "ific": 6193,
      "iforn": 6194,
      "Ġdrizzled": 6195,
      "Ġrefrid": 6196,
      "ĠSE": 6197,
      "ĠSL": 6198,
      "ĠSP": 6199,
      "ĠSy": 6200,
      "ĠSign": 6201,
      "ĠSty": 6202,
      "ĠSchool": 6203,
      "ĠSIDE": 6204,
      "ĠSNOW": 6205,
      "Ġappear": 6206,
      "INE": 6207,
      "Ġgoers": 6208,
      "Ġgourmet": 6209,
      "Ġheadlights": 6210,
      "Ġmac": 6211,
      "Ġmail": 6212,
      "ormal": 6213,
      "Ġmetropolitan": 6214,
      "eyed": 6215,
      "imals": 6216,
      "rence": 6217,
      "Ġpreten": 6218,
      "Ġpreform": 6219,
      "Ġbronze": 6220,
      "Ġstationary": 6221,
      "Ġplatters": 6222,
      "ĠBus": 6223,
      "ĠBAN": 6224,
      "ĠBron": 6225,
      "ĠBear": 6226,
      "ĠBudd": 6227,
      "ĠBALL": 6228,
      "ĠBlvd": 6229,
      "ĠBoys": 6230,
      "Ġsauc": 6231,
      "Ġarts": 6232,
      "Ġarches": 6233,
      "Ġarray": 6234,
      "Ġhawk": 6235,
      "erature": 6236,
      "Ġcamping": 6237,
      "Ġcameras": 6238,
      "Ġdresses": 6239,
      "Ġchecks": 6240,
      "Ġlonghorn": 6241,
      "Ġhitter": 6242,
      "Ġsunf": 6243,
      "Ġsunrise": 6244,
      "Ġcontact": 6245,
      "Ġunripe": 6246,
      "Ġcurrent": 6247,
      "ĠOne": 6248,
      "Ġguide": 6249,
      "Ġherded": 6250,
      "Ġpassersby": 6251,
      "Ġtiered": 6252,
      "Ġthemed": 6253,
      "ĠFl": 6254,
      "Ġcupboard": 6255,
      "RES": 6256,
      "ĠCH": 6257,
      "ĠCol": 6258,
      "ĠCam": 6259,
      "ĠCity": 6260,
      "ĠCIT": 6261,
      "ĠCAR": 6262,
      "ĠCON": 6263,
      "ĠCrapo": 6264,
      "Ġbicyclists": 6265,
      "Ġembed": 6266,
      "Ġwaitress": 6267,
      "Ġworn": 6268,
      "Ġmono": 6269,
      "Ġproper": 6270,
      "Ġprohib": 6271,
      "Ġclub": 6272,
      "Ġlove": 6273,
      "Ġlosing": 6274,
      "Ġstored": 6275,
      "Ġadd": 6276,
      "aco": 6277,
      "acter": 6278,
      "Ġracers": 6279,
      "tens": 6280,
      "Ġclearing": 6281,
      "Ġpreparation": 6282,
      "Ġperf": 6283,
      "Ġperio": 6284,
      "Ġwalkers": 6285,
      "Ġtelevisions": 6286,
      "ĠPO": 6287,
      "ĠPol": 6288,
      "ĠParking": 6289,
      "ĠPARK": 6290,
      "Ġcaboose": 6291,
      "Ġknit": 6292,
      "Ġpatriotic": 6293,
      "ĠIn": 6294,
      "ĠItal": 6295,
      "Ġpairs": 6296,
      "ankment": 6297,
      "Ġdonkeys": 6298,
      "Ġliner": 6299,
      "Ġleave": 6300,
      "Ġmeatball": 6301,
      "Ġcanvas": 6302,
      "Ġpaperwork": 6303,
      "Ġbartender": 6304,
      "Ġattachment": 6305,
      "Ġpitched": 6306,
      "Ġrocking": 6307,
      "wear": 6308,
      "Ġsteal": 6309,
      "Ġshells": 6310,
      "ĠTHEIR": 6311,
      "ĠMac": 6312,
      "ĠMIR": 6313,
      "ĠMalay": 6314,
      "ĠMadison": 6315,
      "Ġpurch": 6316,
      "Ġlooked": 6317,
      "hicago": 6318,
      "Ġstorefront": 6319,
      "ĠLe": 6320,
      "ĠLane": 6321,
      "ĠLittle": 6322,
      "ĠLIV": 6323,
      "ĠLibrary": 6324,
      "Ġpeels": 6325,
      "Ġpeaco": 6326,
      "Ġpanoramic": 6327,
      "Ġhairy": 6328,
      "Ġscenery": 6329,
      "ATED": 6330,
      "Ġflaming": 6331,
      "Ġgreeting": 6332,
      "Ġsalt": 6333,
      "Ġhalfway": 6334,
      "Ġnovel": 6335,
      "Ġpolka": 6336,
      "Ġexc": 6337,
      "Ġexpen": 6338,
      "Ġexpla": 6339,
      "Ġexiting": 6340,
      "Ġexotic": 6341,
      "Ġextinguis": 6342,
      "Ġcloudless": 6343,
      "serole": 6344,
      "Ġbreads": 6345,
      "Ġhovering": 6346,
      "Ġmouths": 6347,
      "Ġcurbside": 6348,
      "Ġmicrowaves": 6349,
      "ize": 6350,
      "ĠHo": 6351,
      "ĠHond": 6352,
      "ĠHOR": 6353,
      "ĠHolly": 6354,
      "Ġclearly": 6355,
      "ĠDIS": 6356,
      "ĠDOW": 6357,
      "ĠDVD": 6358,
      "ĠNor": 6359,
      "Ġcommode": 6360,
      "Smiling": 6361,
      "Smoke": 6362,
      "ĠGira": 6363,
      "ĠGoodmay": 6364,
      "Ġamaz": 6365,
      "Ġamuse": 6366,
      "Ġwedged": 6367,
      "Ġbasement": 6368,
      "Stat": 6369,
      "Ġequest": 6370,
      "Ġequipped": 6371,
      "Ġdistant": 6372,
      "Ġnotes": 6373,
      "Ġnotepad": 6374,
      "Ġlapel": 6375,
      "ĠANIM": 6376,
      "Ġspeeds": 6377,
      "Ġspeaker": 6378,
      "ROR": 6379,
      "ROUND": 6380,
      "Ġwildeb": 6381,
      "Ġfacility": 6382,
      "Ġstalls": 6383,
      "Ġengaged": 6384,
      "ĠEast": 6385,
      "ĠElvis": 6386,
      "ĠEurope": 6387,
      "Ġeyeball": 6388,
      "Ġparticip": 6389,
      "Ġfamous": 6390,
      "Ġseem": 6391,
      "Ġsinging": 6392,
      "Ġshots": 6393,
      "Ġsmiley": 6394,
      "scent": 6395,
      "roadway": 6396,
      "Ġhammer": 6397,
      "Ġstylish": 6398,
      "Ġchains": 6399,
      "Ġlocal": 6400,
      "Ġlocation": 6401,
      "Ġlocations": 6402,
      "Ġcenterpiece": 6403,
      "Ġburner": 6404,
      "Ġburning": 6405,
      "Ġportable": 6406,
      "ĠRed": 6407,
      "ĠRIDING": 6408,
      "Ġprice": 6409,
      "Ġfog": 6410,
      "ALS": 6411,
      "IRT": 6412,
      "Ġpeeks": 6413,
      "Ġcracker": 6414,
      "Ġcrashed": 6415,
      "Ġstained": 6416,
      "Ġchecked": 6417,
      "Ġrooftop": 6418,
      "Ġbusinessman": 6419,
      "Ġmakeshift": 6420,
      "Ġveggie": 6421,
      "ĠStates": 6422,
      "ĠStarbucks": 6423,
      "Ġarmchair": 6424,
      "bbling": 6425,
      "Ġpowder": 6426,
      "Ġmilked": 6427,
      "fessional": 6428,
      "lands": 6429,
      "Ġopponent": 6430,
      "Ġfarmers": 6431,
      "Ġtrashcan": 6432,
      "Ġtrolly": 6433,
      "ĠVE": 6434,
      "Ġbulls": 6435,
      "Ġchoppy": 6436,
      "Advert": 6437,
      "Skate": 6438,
      "Variety": 6439,
      "ĠUS": 6440,
      "ĠUn": 6441,
      "ĠUNDER": 6442,
      "Ġglaze": 6443,
      "Ġtoasting": 6444,
      "Ġearb": 6445,
      "Ġretro": 6446,
      "Ġjoe": 6447,
      "Ġjoke": 6448,
      "Ġprofession": 6449,
      "Ġcigarettes": 6450,
      "Ġentry": 6451,
      "Ġentrees": 6452,
      "Ġenthus": 6453,
      "Ġmixer": 6454,
      "Ġglitter": 6455,
      "Ġ20": 6456,
      "Ġ22": 6457,
      "Ġtwig": 6458,
      "Ġsyrup": 6459,
      "ORT": 6460,
      "Ġcaps": 6461,
      "Ġmedian": 6462,
      "Ġmedical": 6463,
      "Ġdrain": 6464,
      "Ġbiker": 6465,
      "Ġturning": 6466,
      "Ġcasual": 6467,
      "Ġcasserole": 6468,
      "Ġcubicle": 6469,
      "Ġsprays": 6470,
      "Individual": 6471,
      "Ġinstall": 6472,
      "Ġdepot": 6473,
      "Ġdepartment": 6474,
      "Ġpatterns": 6475,
      "UTS": 6476,
      "Ġstretching": 6477,
      "Ġstretched": 6478,
      "Ġsprinkled": 6479,
      "Ġteenage": 6480,
      "Ġteenagers": 6481,
      "Compet": 6482,
      "Ġsuper": 6483,
      "Ġferris": 6484,
      "Ġsurroundings": 6485,
      "Ġliquor": 6486,
      "GETHER": 6487,
      "Ġfilm": 6488,
      "Ġfiltered": 6489,
      "Ġdigging": 6490,
      "Ġparasail": 6491,
      "URT": 6492,
      "Ġtires": 6493,
      "Ġbillowing": 6494,
      "Ġangles": 6495,
      "Ġangry": 6496,
      "Ġstrapped": 6497,
      "Ġheavily": 6498,
      "ĠTOILE": 6499,
      "ĠTOGETHER": 6500,
      "ĠSKY": 6501,
      "Ġnumerous": 6502,
      "Ġconsum": 6503,
      "ĠTRAIN": 6504,
      "ĠTRICK": 6505,
      "ĠLAYING": 6506,
      "ĠLAUGH": 6507,
      "Ġgarnished": 6508,
      "Ġcelebration": 6509,
      "Ġvolleyball": 6510,
      "ĠJU": 6511,
      "Ġowls": 6512,
      "Ġbadly": 6513,
      "Ġbadmint": 6514,
      "Ġcopper": 6515,
      "Ġcustomized": 6516,
      "Ġindividuals": 6517,
      "ĠWOMEN": 6518,
      "Ġbits": 6519,
      "Ġbitten": 6520,
      "Ġfills": 6521,
      "Ġfilling": 6522,
      "Ġnature": 6523,
      "Ġseashell": 6524,
      "Ġcountertops": 6525,
      "Ġpancake": 6526,
      "Ġwheeler": 6527,
      "Ġpigs": 6528,
      "Ġfedora": 6529,
      "Ġcharacter": 6530,
      "Ġsneaker": 6531,
      "Ġunused": 6532,
      "Ġworkspace": 6533,
      "Ġremoving": 6534,
      "Ġprincess": 6535,
      "ĠYork": 6536,
      "Ġawning": 6537,
      "Ġpalace": 6538,
      "Ġgaze": 6539,
      "Ġgazing": 6540,
      "Ġstirring": 6541,
      "Ġthought": 6542,
      "Ġfixture": 6543,
      "Ġsnuggled": 6544,
      "Ġsnuggling": 6545,
      "Ġhandicapped": 6546,
      "Ġmosaic": 6547,
      "Ġmovies": 6548,
      "Ġimportant": 6549,
      "ĠFIRE": 6550,
      "ĠCOURT": 6551,
      "Ġtrimming": 6552,
      "ĠDOING": 6553,
      "ELLOW": 6554,
      "Ġdepicts": 6555,
      "Ġlanguages": 6556,
      "Bicycles": 6557,
      "Gray": 6558,
      "Graffiti": 6559,
      "ebox": 6560,
      "Ġarrives": 6561,
      "Ġcampaign": 6562,
      "Ġprotect": 6563,
      "Ġprotective": 6564,
      "Ġexposing": 6565,
      "Ġexposed": 6566,
      "Ġfurnished": 6567,
      "Sliced": 6568,
      "gypt": 6569,
      "Ġidle": 6570,
      "Ġborder": 6571,
      "Ġmaneu": 6572,
      "Ġathletes": 6573,
      "Ġrelated": 6574,
      "Ġgroceries": 6575,
      "Ġgrowth": 6576,
      "Ġpockets": 6577,
      "Ġcompartments": 6578,
      "ĠTREES": 6579,
      "Ġmovement": 6580,
      "Ġemerging": 6581,
      "Ġprojector": 6582,
      "Ġmember": 6583,
      "Ġpeanuts": 6584,
      "Ġ1929": 6585,
      "Ġmagazine": 6586,
      "Ġpresentation": 6587,
      "Ġrepairs": 6588,
      "Motorcycle": 6589,
      "Assortment": 6590,
      "Ġsilhouette": 6591,
      "Double": 6592,
      "Partially": 6593,
      "Teen": 6594,
      "ĠHER": 6595,
      "Ġsided": 6596,
      "Ġpressed": 6597,
      "Ġcreepy": 6598,
      "Ġincredible": 6599,
      "Ġdomed": 6600,
      "Ġkisses": 6601,
      "Ġkissing": 6602,
      "Ġshades": 6603,
      "Ġshadows": 6604,
      "Ġzombie": 6605,
      "Ġzombies": 6606,
      "Ġtemperature": 6607,
      "Ġdefensive": 6608,
      "ĠCOMP": 6609,
      "Ġcemetary": 6610,
      "Ġcemetery": 6611,
      "Ġgrandfather": 6612,
      "Skateboarder": 6613,
      "Snowboard": 6614,
      "Bright": 6615,
      "Fruits": 6616,
      "ILL": 6617,
      "MOD": 6618,
      "PLANE": 6619,
      "Player": 6620,
      "Ġorigami": 6621,
      "Ġblazer": 6622,
      "Ġwoven": 6623,
      "Ġwandering": 6624,
      "Ġpeddling": 6625,
      "Ġcitrus": 6626,
      "Ġcrystal": 6627,
      "Ġcucumbers": 6628,
      "Ġmessing": 6629,
      "Ġmelted": 6630,
      "Ġhuddled": 6631,
      "Ġdrops": 6632,
      "Ġrental": 6633,
      "Ġbodacious": 6634,
      "Ġlambs": 6635,
      "Ġattractive": 6636,
      "Ġmarkings": 6637,
      "Ġassembly": 6638,
      "ĠEngland": 6639,
      "Ġsuburban": 6640,
      "Ġvisitors": 6641,
      "Ġbutterfly": 6642,
      "Ġwindsurfer": 6643,
      "Ġemployees": 6644,
      "Ġcontemporary": 6645,
      "BOARD": 6646,
      "Chef": 6647,
      "Polar": 6648,
      "PLAY": 6649,
      "Toilet": 6650,
      "speed": 6651,
      "Ġvertically": 6652,
      "Ġtangerines": 6653,
      "Ġoccup": 6654,
      "Ġoversized": 6655,
      "Ġbabies": 6656,
      "Ġbundled": 6657,
      "Ġponies": 6658,
      "Ġpirate": 6659,
      "Ġpilot": 6660,
      "Ġcherry": 6661,
      "Ġcrib": 6662,
      "Ġinstructor": 6663,
      "Ġfleet": 6664,
      "Ġminimal": 6665,
      "children": 6666,
      "Ġboulder": 6667,
      "Ġchanges": 6668,
      "Ġwatermelon": 6669,
      "Ġsexy": 6670,
      "Ġovergrown": 6671,
      "Ġconversation": 6672,
      "ĠAmtrak": 6673,
      "Ġdecadent": 6674,
      "ĠSOME": 6675,
      "ĠWII": 6676,
      "Ġappearing": 6677,
      "Ġcontraption": 6678,
      "ĠFrisbees": 6679,
      "Ġembankment": 6680,
      "Ġprominent": 6681,
      "Ġprotruding": 6682,
      "ĠPLATE": 6683,
      "Ġmeasuring": 6684,
      "ĠIndian": 6685,
      "Ġpajamas": 6686,
      "Ġpauses": 6687,
      "ĠDodge": 6688,
      "Ġcrocheted": 6689,
      "Ġlifeguard": 6690,
      "Ġexpression": 6691,
      "ĠGIRAFFES": 6692,
      "ĠWATCHING": 6693,
      "Ġtrotting": 6694,
      "Ġemergency": 6695,
      "Ġmemorial": 6696,
      "Vehicles": 6697,
      "Ġrenovation": 6698,
      "Buildings": 6699,
      "Elderly": 6700,
      "Fresh": 6701,
      "Garbage": 6702,
      "Image": 6703,
      "NSF": 6704,
      "Numerous": 6705,
      "Ornate": 6706,
      "Oranges": 6707,
      "Parent": 6708,
      "Professional": 6709,
      "Workers": 6710,
      "multiple": 6711,
      "rincess": 6712,
      "tHERE": 6713,
      "Ġidentical": 6714,
      "Ġalert": 6715,
      "Ġtelivision": 6716,
      "Ġtricycle": 6717,
      "Ġostrich": 6718,
      "Ġsesame": 6719,
      "Ġblade": 6720,
      "Ġprices": 6721,
      "Ġfabric": 6722,
      "Ġmixture": 6723,
      "Ġhomes": 6724,
      "Ġlingerie": 6725,
      "Ġneglected": 6726,
      "Ġegrets": 6727,
      "Ġrectangular": 6728,
      "Ġkiosk": 6729,
      "undreds": 6730,
      "Ġplumbing": 6731,
      "Ġparallel": 6732,
      "Ġchampagne": 6733,
      "Ġupscale": 6734,
      "Ġflanked": 6735,
      "Ġrustic": 6736,
      "Ġpodium": 6737,
      "Ġzucch": 6738,
      "Ġleftover": 6739,
      "Ġconference": 6740,
      "Ġcongreg": 6741,
      "ĠArabic": 6742,
      "Ġhandkerchief": 6743,
      "Ġenormous": 6744,
      "ifornia": 6745,
      "Ġrefridgerat": 6746,
      "ĠStyrofoam": 6747,
      "Ġpretending": 6748,
      "Ġpreforming": 6749,
      "ĠBANAN": 6750,
      "ĠBronx": 6751,
      "ĠBuddha": 6752,
      "ĠCITY": 6753,
      "Ġembedded": 6754,
      "Ġprohibiting": 6755,
      "Ġperiod": 6756,
      "ĠMIRROR": 6757,
      "ĠMalaysian": 6758,
      "ĠLIVING": 6759,
      "Ġextinguisher": 6760,
      "ĠHonda": 6761,
      "ĠHollywood": 6762,
      "ĠDISPLAY": 6763,
      "ĠDOWN": 6764,
      "ĠGoodmayes": 6765,
      "Ġamusement": 6766,
      "ĠANIMALS": 6767,
      "ĠLAUGHING": 6768,
      "Ġbadminton": 6769,
      "Ġseashells": 6770,
      "01": 6771,
      "14": 6772,
      "30": 6773,
      "38": 6774,
      "43": 6775,
      "44": 6776,
      "47": 6777,
      "78": 6778,
      "AP": 6779,
      "Ant": 6780,
      "Ath": 6781,
      "ADING": 6782,
      "Asian": 6783,
      "Afric": 6784,
      "Apple": 6785,
      "BQ": 6786,
      "Bar": 6787,
      "Bel": 6788,
      "Bask": 6789,
      "Birds": 6790,
      "CC": 6791,
      "CY": 6792,
      "Cle": 6793,
      "Cra": 6794,
      "Cor": 6795,
      "Cris": 6796,
      "Cross": 6797,
      "CLE": 6798,
      "Cats": 6799,
      "CES": 6800,
      "COR": 6801,
      "Cooked": 6802,
      "Dis": 6803,
      "Dirt": 6804,
      "DUL": 6805,
      "EP": 6806,
      "Ent": 6807,
      "EAN": 6808,
      "Eng": 6809,
      "Fro": 6810,
      "Flo": 6811,
      "Full": 6812,
      "Fork": 6813,
      "GM": 6814,
      "Glass": 6815,
      "GER": 6816,
      "Gather": 6817,
      "GET": 6818,
      "IE": 6819,
      "Is": 6820,
      "Ice": 6821,
      "Int": 6822,
      "IAN": 6823,
      "IED": 6824,
      "IET": 6825,
      "Kris": 6826,
      "KET": 6827,
      "Long": 6828,
      "LIC": 6829,
      "LUE": 6830,
      "MAN": 6831,
      "MPING": 6832,
      "Nicely": 6833,
      "Number": 6834,
      "NUTS": 6835,
      "Othe": 6836,
      "OTHER": 6837,
      "OCC": 6838,
      "Pad": 6839,
      "Pain": 6840,
      "Pub": 6841,
      "Port": 6842,
      "PLE": 6843,
      "Pizz": 6844,
      "Pano": 6845,
      "PPL": 6846,
      "Piles": 6847,
      "Peeled": 6848,
      "Princess": 6849,
      "RA": 6850,
      "Run": 6851,
      "RIED": 6852,
      "SP": 6853,
      "Sw": 6854,
      "Ser": 6855,
      "Sal": 6856,
      "Sign": 6857,
      "Sep": 6858,
      "Sty": 6859,
      "Stop": 6860,
      "Sandwich": 6861,
      "TE": 6862,
      "Ten": 6863,
      "Tow": 6864,
      "TING": 6865,
      "Tabby": 6866,
      "TAIN": 6867,
      "Ur": 6868,
      "UIT": 6869,
      "UFF": 6870,
      "VE": 6871,
      "Van": 6872,
      "VER": 6873,
      "Vintage": 6874,
      "Vend": 6875,
      "Wood": 6876,
      "Wild": 6877,
      "WAY": 6878,
      "ai": 6879,
      "aver": 6880,
      "aul": 6881,
      "aight": 6882,
      "aving": 6883,
      "aled": 6884,
      "aired": 6885,
      "ailed": 6886,
      "bus": 6887,
      "brown": 6888,
      "bag": 6889,
      "book": 6890,
      "burn": 6891,
      "baseball": 6892,
      "bread": 6893,
      "bama": 6894,
      "ci": 6895,
      "cs": 6896,
      "cid": 6897,
      "card": 6898,
      "creen": 6899,
      "cue": 6900,
      "cent": 6901,
      "cies": 6902,
      "cier": 6903,
      "din": 6904,
      "die": 6905,
      "dled": 6906,
      "dated": 6907,
      "dney": 6908,
      "eg": 6909,
      "eled": 6910,
      "eets": 6911,
      "ement": 6912,
      "ewe": 6913,
      "ecorated": 6914,
      "fl": 6915,
      "fed": 6916,
      "fying": 6917,
      "fone": 6918,
      "fine": 6919,
      "filled": 6920,
      "fruit": 6921,
      "fish": 6922,
      "gate": 6923,
      "gul": 6924,
      "game": 6925,
      "gent": 6926,
      "guy": 6927,
      "giving": 6928,
      "gusting": 6929,
      "hs": 6930,
      "hin": 6931,
      "hop": 6932,
      "hone": 6933,
      "hich": 6934,
      "iv": 6935,
      "ien": 6936,
      "iile": 6937,
      "iam": 6938,
      "ike": 6939,
      "iast": 6940,
      "ival": 6941,
      "ihua": 6942,
      "jewe": 6943,
      "kite": 6944,
      "kins": 6945,
      "llo": 6946,
      "long": 6947,
      "lies": 6948,
      "looking": 6949,
      "latter": 6950,
      "mat": 6951,
      "mot": 6952,
      "mic": 6953,
      "mill": 6954,
      "mellow": 6955,
      "more": 6956,
      "mark": 6957,
      "mble": 6958,
      "mbe": 6959,
      "mware": 6960,
      "military": 6961,
      "nn": 6962,
      "net": 6963,
      "nol": 6964,
      "nly": 6965,
      "ou": 6966,
      "oop": 6967,
      "off": 6968,
      "ough": 6969,
      "outh": 6970,
      "oda": 6971,
      "ocked": 6972,
      "person": 6973,
      "pse": 6974,
      "pine": 6975,
      "part": 6976,
      "pical": 6977,
      "pherd": 6978,
      "pipe": 6979,
      "rand": 6980,
      "rum": 6981,
      "right": 6982,
      "rates": 6983,
      "sw": 6984,
      "she": 6985,
      "sive": 6986,
      "sia": 6987,
      "spect": 6988,
      "sailing": 6989,
      "small": 6990,
      "tage": 6991,
      "tched": 6992,
      "tten": 6993,
      "tuce": 6994,
      "toman": 6995,
      "tail": 6996,
      "titude": 6997,
      "ule": 6998,
      "uore": 6999,
      "uces": 7000,
      "uary": 7001,
      "uins": 7002,
      "uana": 7003,
      "vig": 7004,
      "vol": 7005,
      "with": 7006,
      "well": 7007,
      "wning": 7008,
      "wise": 7009,
      "xes": 7010,
      "xting": 7011,
      "xim": 7012,
      "xican": 7013,
      "ye": 7014,
      "ynn": 7015,
      "zbee": 7016,
      "Ġ'": 7017,
      "Ġ-": 7018,
      "Ġig": 7019,
      "ĠTwo": 7020,
      "Ġign": 7021,
      "Ġest": 7022,
      "Ġ50": 7023,
      "Ġugly": 7024,
      "Ġais": 7025,
      "Ġage": 7026,
      "Ġaim": 7027,
      "into": 7028,
      "inctive": 7029,
      "Ġtar": 7030,
      "Ġtas": 7031,
      "Ġtig": 7032,
      "Ġtide": 7033,
      "Ġtam": 7034,
      "Ġtip": 7035,
      "Ġtass": 7036,
      "Ġtrink": 7037,
      "Ġtshirt": 7038,
      "Ġoat": 7039,
      "Ġome": 7040,
      "Ġson": 7041,
      "Ġsher": 7042,
      "Ġsure": 7043,
      "Ġsack": 7044,
      "Ġsip": 7045,
      "Ġsens": 7046,
      "Ġsque": 7047,
      "Ġsending": 7048,
      "Ġsipping": 7049,
      "Ġsanta": 7050,
      "ingy": 7051,
      "ingham": 7052,
      "itting": 7053,
      "itch": 7054,
      "itty": 7055,
      "itering": 7056,
      "Ġbroom": 7057,
      "Ġbake": 7058,
      "Ġbark": 7059,
      "Ġblen": 7060,
      "Ġbond": 7061,
      "Ġwi": 7062,
      "Ġwin": 7063,
      "Ġwid": 7064,
      "Ġwig": 7065,
      "Ġwant": 7066,
      "Ġwaring": 7067,
      "Ġwrough": 7068,
      "Ġwort": 7069,
      "Ġworm": 7070,
      "Ġwolf": 7071,
      "Ġwilting": 7072,
      "hen": 7073,
      "hette": 7074,
      "Ġpc": 7075,
      "Ġpers": 7076,
      "Ġpri": 7077,
      "Ġpeb": 7078,
      "Ġpant": 7079,
      "Ġpure": 7080,
      "Ġpage": 7081,
      "Ġpeng": 7082,
      "Ġpud": 7083,
      "Ġpale": 7084,
      "Ġpuck": 7085,
      "Ġpushes": 7086,
      "Ġpudd": 7087,
      "Ġpunching": 7088,
      "anit": 7089,
      "anas": 7090,
      "annel": 7091,
      "rected": 7092,
      "retched": 7093,
      "Ġcot": 7094,
      "Ġcame": 7095,
      "Ġcane": 7096,
      "Ġcraw": 7097,
      "Ġcages": 7098,
      "Ġcrop": 7099,
      "Ġcuddle": 7100,
      "lets": 7101,
      "erced": 7102,
      "erman": 7103,
      "errier": 7104,
      "Ġonst": 7105,
      "Ġoncoming": 7106,
      "athered": 7107,
      "atures": 7108,
      "atively": 7109,
      "atula": 7110,
      "Ġinver": 7111,
      "Ġinse": 7112,
      "Ġinner": 7113,
      "Ġinspect": 7114,
      "Ġinvol": 7115,
      "arch": 7116,
      "arying": 7117,
      "arter": 7118,
      "Ġfra": 7119,
      "Ġfas": 7120,
      "Ġfaded": 7121,
      "isk": 7122,
      "ished": 7123,
      "isney": 7124,
      "Ġanal": 7125,
      "Ġanci": 7126,
      "Ġansw": 7127,
      "Ġmp": 7128,
      "Ġmas": 7129,
      "Ġmall": 7130,
      "Ġmut": 7131,
      "Ġmile": 7132,
      "Ġmice": 7133,
      "Ġmash": 7134,
      "Ġminer": 7135,
      "Ġmoose": 7136,
      "Ġmama": 7137,
      "Ġmingle": 7138,
      "Ġwitha": 7139,
      "Ġhon": 7140,
      "Ġhind": 7141,
      "Ġhug": 7142,
      "Ġhub": 7143,
      "Ġhunk": 7144,
      "Ġhoping": 7145,
      "Ġhundreds": 7146,
      "enn": 7147,
      "ender": 7148,
      "Ġgig": 7149,
      "Ġgad": 7150,
      "Ġgain": 7151,
      "Ġgang": 7152,
      "Ġgho": 7153,
      "Ġgothic": 7154,
      "Ġgingham": 7155,
      "Ġdun": 7156,
      "Ġdeb": 7157,
      "Ġdate": 7158,
      "Ġdumb": 7159,
      "Ġdent": 7160,
      "Ġdull": 7161,
      "Ġdated": 7162,
      "Ġdance": 7163,
      "Ġdancing": 7164,
      "Ġdots": 7165,
      "Ġdyed": 7166,
      "Ġdingy": 7167,
      "Ġtoo": 7168,
      "Ġtouring": 7169,
      "Ġtouc": 7170,
      "Ġtoli": 7171,
      "Ġlic": 7172,
      "Ġlist": 7173,
      "Ġlung": 7174,
      "alking": 7175,
      "ality": 7176,
      "Ġstate": 7177,
      "Ġstake": 7178,
      "Ġstrol": 7179,
      "Ġstages": 7180,
      "Ġstrun": 7181,
      "Ġstories": 7182,
      "Ġstucc": 7183,
      "rapers": 7184,
      "esan": 7185,
      "eson": 7186,
      "esel": 7187,
      "edy": 7188,
      "onents": 7189,
      "Ġisn": 7190,
      "Ġisle": 7191,
      "ord": 7192,
      "oring": 7193,
      "orid": 7194,
      "orget": 7195,
      "orange": 7196,
      "eter": 7197,
      "etball": 7198,
      "ettuce": 7199,
      "lady": 7200,
      "unset": 7201,
      "uncing": 7202,
      "unette": 7203,
      "iring": 7204,
      "Ġnon": 7205,
      "Ġnest": 7206,
      "Ġnasty": 7207,
      "Ġnormal": 7208,
      "opping": 7209,
      "Ġmantle": 7210,
      "Ġmango": 7211,
      "Ġmanual": 7212,
      "ased": 7213,
      "ashes": 7214,
      "Ġsitt": 7215,
      "idding": 7216,
      "iders": 7217,
      "idate": 7218,
      "iddle": 7219,
      "chand": 7220,
      "chment": 7221,
      "Ġnecks": 7222,
      "Ġnecess": 7223,
      "ilar": 7224,
      "ilight": 7225,
      "ilies": 7226,
      "elow": 7227,
      "elmet": 7228,
      "elines": 7229,
      "othered": 7230,
      "urs": 7231,
      "urce": 7232,
      "uries": 7233,
      "urger": 7234,
      "utch": 7235,
      "Ġwhom": 7236,
      "Ġwhine": 7237,
      "Ġwhiile": 7238,
      "Ġstaning": 7239,
      "ica": 7240,
      "icy": 7241,
      "icles": 7242,
      "ician": 7243,
      "icular": 7244,
      "olvo": 7245,
      "used": 7246,
      "ussion": 7247,
      "Ġatm": 7248,
      "Ġbead": 7249,
      "Ġbegs": 7250,
      "Ġbeads": 7251,
      "Ġbeaded": 7252,
      "Ġbejewe": 7253,
      "ria": 7254,
      "rifying": 7255,
      "Ġeight": 7256,
      "Ġeffic": 7257,
      "Ġecla": 7258,
      "Ġreact": 7259,
      "Ġreeds": 7260,
      "Ġrelish": 7261,
      "ssy": 7262,
      "Ġtrap": 7263,
      "Ġtrailing": 7264,
      "Ġtrade": 7265,
      "Ġtraditional": 7266,
      "Ġcog": 7267,
      "Ġcobb": 7268,
      "Ġcoco": 7269,
      "Ġrod": 7270,
      "Ġroot": 7271,
      "Ġroam": 7272,
      "Ġroses": 7273,
      "Ġropes": 7274,
      "Ġrotten": 7275,
      "Ġskidding": 7276,
      "ado": 7277,
      "adows": 7278,
      "eburger": 7279,
      "Ġplaque": 7280,
      "Ġplacid": 7281,
      "ables": 7282,
      "Ġboar": 7283,
      "Ġbought": 7284,
      "Ġbouncing": 7285,
      "Ġdocks": 7286,
      "Ġkale": 7287,
      "Ġkilt": 7288,
      "Thee": 7289,
      "Their": 7290,
      "undance": 7291,
      "Ġstreaking": 7292,
      "Ġstreeet": 7293,
      "Ġplus": 7294,
      "Ġplug": 7295,
      "Ġplugg": 7296,
      "Ġplums": 7297,
      "Ġholing": 7298,
      "Ġfrog": 7299,
      "Ġfrowning": 7300,
      "Ġstreetlight": 7301,
      "Ġparmes": 7302,
      "Ġparchment": 7303,
      "Ġshoo": 7304,
      "Ġshut": 7305,
      "Ġshag": 7306,
      "Ġshark": 7307,
      "Ġshutter": 7308,
      "Ġlaun": 7309,
      "Ġlazy": 7310,
      "Ġgrape": 7311,
      "Ġyach": 7312,
      "Ġyaw": 7313,
      "Ġyummy": 7314,
      "Ġcho": 7315,
      "Ġchin": 7316,
      "Ġchat": 7317,
      "Ġchub": 7318,
      "Ġchill": 7319,
      "Ġcharm": 7320,
      "Ġchallen": 7321,
      "Ġchange": 7322,
      "Ġchina": 7323,
      "Ġchannel": 7324,
      "ersonator": 7325,
      "antic": 7326,
      "amel": 7327,
      "aments": 7328,
      "amole": 7329,
      "Ġsmooth": 7330,
      "Ġsmothered": 7331,
      "ouncing": 7332,
      "andments": 7333,
      "Ġupper": 7334,
      "Ġuphill": 7335,
      "Ġupright": 7336,
      "Ġpicks": 7337,
      "Ġpiping": 7338,
      "Ġgrouping": 7339,
      "umn": 7340,
      "umped": 7341,
      "Ġdowned": 7342,
      "Ġvul": 7343,
      "Ġvac": 7344,
      "Ġvirgin": 7345,
      "Ġvarying": 7346,
      "Ġwatched": 7347,
      "ulated": 7348,
      "Ġcaring": 7349,
      "Ġcarving": 7350,
      "Ġcarous": 7351,
      "Ġcaramel": 7352,
      "Ġfields": 7353,
      "Ġfielder": 7354,
      "seat": 7355,
      "seed": 7356,
      "Ġbuss": 7357,
      "Ġbust": 7358,
      "Ġbusses": 7359,
      "Ġbusines": 7360,
      "Ġbushel": 7361,
      "Ġflats": 7362,
      "Ġfluore": 7363,
      "Ġoutst": 7364,
      "Ġoutline": 7365,
      "Ġoutdated": 7366,
      "Ġsidecar": 7367,
      "Ġray": 7368,
      "Ġracks": 7369,
      "Ġraft": 7370,
      "Ġrasp": 7371,
      "Ġrabb": 7372,
      "Ġrays": 7373,
      "Ġraises": 7374,
      "Ġfronts": 7375,
      "Ġbud": 7376,
      "Ġbug": 7377,
      "Ġbuy": 7378,
      "Ġbuiding": 7379,
      "Ġbudd": 7380,
      "Ġsignpo": 7381,
      "ston": 7382,
      "stop": 7383,
      "stic": 7384,
      "sters": 7385,
      "street": 7386,
      "style": 7387,
      "Ġwaling": 7388,
      "Ġwalled": 7389,
      "Ġsurp": 7390,
      "uges": 7391,
      "Ġrooms": 7392,
      "aint": 7393,
      "Ġblown": 7394,
      "Ġcomic": 7395,
      "Ġcombs": 7396,
      "Ġcomically": 7397,
      "airs": 7398,
      "Ġrin": 7399,
      "Ġrig": 7400,
      "Ġrather": 7401,
      "Ġrhin": 7402,
      "Ġruins": 7403,
      "Ġpouch": 7404,
      "Ġpours": 7405,
      "boarders": 7406,
      "clear": 7407,
      "tern": 7408,
      "ctures": 7409,
      "ctric": 7410,
      "ctural": 7411,
      "ctuary": 7412,
      "Ġhorn": 7413,
      "Ġhorser": 7414,
      "Ġhorrible": 7415,
      "Ġottoman": 7416,
      "Ġotherwise": 7417,
      "ransit": 7418,
      "Ġmote": 7419,
      "Ġmotif": 7420,
      "Ġmoths": 7421,
      "Ġjunction": 7422,
      "Ġjumped": 7423,
      "Ġgifts": 7424,
      "umbling": 7425,
      "Ġsequ": 7426,
      "Ġseper": 7427,
      "Ġseeds": 7428,
      "Ġbacked": 7429,
      "Ġbackwards": 7430,
      "Ġbackseat": 7431,
      "Ġcompo": 7432,
      "Ġcomplet": 7433,
      "Ġcomponent": 7434,
      "Ġelements": 7435,
      "tled": 7436,
      "tles": 7437,
      "ughter": 7438,
      "Ġbends": 7439,
      "Ġbento": 7440,
      "Ġoverview": 7441,
      "Ġwavy": 7442,
      "Ġleashes": 7443,
      "irling": 7444,
      "Ġheat": 7445,
      "Ġhear": 7446,
      "Ġheard": 7447,
      "Ġhedges": 7448,
      "Ġdisor": 7449,
      "Ġdisgusting": 7450,
      "gets": 7451,
      "enty": 7452,
      "ention": 7453,
      "ential": 7454,
      "rely": 7455,
      "Ġweight": 7456,
      "Ġweathered": 7457,
      "Ġtowing": 7458,
      "Ġconges": 7459,
      "Ġconvert": 7460,
      "Ġconvent": 7461,
      "Ġconfront": 7462,
      "Ġconfet": 7463,
      "Ġconcept": 7464,
      "Ġconcent": 7465,
      "Thin": 7466,
      "Ġskiier": 7467,
      "Ġmens": 7468,
      "Ġwindso": 7469,
      "Ġwindmill": 7470,
      "ongings": 7471,
      "ppost": 7472,
      "ppucc": 7473,
      "Ġslush": 7474,
      "Ġslides": 7475,
      "Ġalter": 7476,
      "Ġaltitude": 7477,
      "Ġshed": 7478,
      "Ġsheer": 7479,
      "ĠAS": 7480,
      "ĠAr": 7481,
      "ĠAla": 7482,
      "ĠAust": 7483,
      "ĠAsh": 7484,
      "ĠAuro": 7485,
      "ĠApr": 7486,
      "ĠADUL": 7487,
      "ĠAPPL": 7488,
      "Ġhandled": 7489,
      "Ġhandling": 7490,
      "aneously": 7491,
      "Ġintrig": 7492,
      "Ġintense": 7493,
      "Ġboarded": 7494,
      "Ġasia": 7495,
      "Ġashore": 7496,
      "Ġscore": 7497,
      "Ġsciss": 7498,
      "Ġscraper": 7499,
      "Ġscroll": 7500,
      "Ġbrowned": 7501,
      "Ġundecorated": 7502,
      "Ġunderpass": 7503,
      "Ġunderwear": 7504,
      "Ġbows": 7505,
      "rised": 7506,
      "ksgiving": 7507,
      "Ġspa": 7508,
      "Ġspir": 7509,
      "Ġspice": 7510,
      "Ġspark": 7511,
      "Ġsparrow": 7512,
      "Ġspins": 7513,
      "Ġspices": 7514,
      "Ġsporting": 7515,
      "Ġsparse": 7516,
      "Ġsplatter": 7517,
      "Ġspatula": 7518,
      "Ġspicy": 7519,
      "aped": 7520,
      "apers": 7521,
      "Ġphotosh": 7522,
      "boys": 7523,
      "Ġfirepl": 7524,
      "Ġteh": 7525,
      "Ġtear": 7526,
      "Ġteal": 7527,
      "Ġtequ": 7528,
      "Ġteaches": 7529,
      "Ġtexting": 7530,
      "orted": 7531,
      "ques": 7532,
      "quets": 7533,
      "quare": 7534,
      "quently": 7535,
      "Ġtagging": 7536,
      "ĠTA": 7537,
      "ĠTeddy": 7538,
      "ĠTrain": 7539,
      "ĠTex": 7540,
      "ĠTOWER": 7541,
      "ĠTerrier": 7542,
      "ĠTransit": 7543,
      "rosstown": 7544,
      "Ġeachother": 7545,
      "plash": 7546,
      "Ġswamp": 7547,
      "Ġsweets": 7548,
      "orea": 7549,
      "Ġdiff": 7550,
      "Ġdiving": 7551,
      "Ġdiag": 7552,
      "Ġdivid": 7553,
      "Ġdiesel": 7554,
      "Ġflore": 7555,
      "Ġtreats": 7556,
      "Ġbunched": 7557,
      "Ġshowroom": 7558,
      "lydes": 7559,
      "Ġsouth": 7560,
      "Ġsource": 7561,
      "Ġbrid": 7562,
      "Ġbrunette": 7563,
      "Ġenough": 7564,
      "Ġmogul": 7565,
      "veseat": 7566,
      "Ġhybr": 7567,
      "Seagull": 7568,
      "ifying": 7569,
      "ifully": 7570,
      "Ġbirdseed": 7571,
      "Ġdripping": 7572,
      "Ġdribbling": 7573,
      "ĠSh": 7574,
      "ĠSk": 7575,
      "ĠSm": 7576,
      "ĠSup": 7577,
      "ĠSHE": 7578,
      "ĠSony": 7579,
      "ĠSMO": 7580,
      "ĠSAY": 7581,
      "ĠScot": 7582,
      "ĠSox": 7583,
      "ĠSport": 7584,
      "ĠSIGN": 7585,
      "ĠSMALL": 7586,
      "ĠSOCC": 7587,
      "ĠSiam": 7588,
      "ĠSouth": 7589,
      "Ġbiking": 7590,
      "dog": 7591,
      "ĠWa": 7592,
      "ĠWal": 7593,
      "ĠWALL": 7594,
      "ĠWELL": 7595,
      "ĠWIND": 7596,
      "Ġstandard": 7597,
      "Ġbigger": 7598,
      "Ġviews": 7599,
      "Ġmidair": 7600,
      "ressive": 7601,
      "angle": 7602,
      "angers": 7603,
      "uffle": 7604,
      "uffel": 7605,
      "Ġpreser": 7606,
      "Ġrested": 7607,
      "Ġrestored": 7608,
      "Ġdrug": 7609,
      "veloped": 7610,
      "ĠBY": 7611,
      "ĠBar": 7612,
      "ĠBank": 7613,
      "ĠBAR": 7614,
      "ĠBEN": 7615,
      "ĠBIG": 7616,
      "ĠBACK": 7617,
      "ĠBEAR": 7618,
      "ĠBost": 7619,
      "ĠBroadway": 7620,
      "ĠBNSF": 7621,
      "ĠBBQ": 7622,
      "Ġsauces": 7623,
      "teen": 7624,
      "Ġdaylight": 7625,
      "Ġdressing": 7626,
      "Ġcoral": 7627,
      "Ġcorrid": 7628,
      "Ġcordless": 7629,
      "Ġvegetated": 7630,
      "Ġchess": 7631,
      "ultaneously": 7632,
      "Ġhitched": 7633,
      "arehouse": 7634,
      "Ġsunning": 7635,
      "Ġsunlight": 7636,
      "Ġcontest": 7637,
      "Ġunb": 7638,
      "Ġunp": 7639,
      "Ġunto": 7640,
      "Ġunopen": 7641,
      "Ġunattended": 7642,
      "Ġuser": 7643,
      "Ġserver": 7644,
      "Ġserious": 7645,
      "Ġcurly": 7646,
      "Ġcurvy": 7647,
      "Ġstuffing": 7648,
      "Ġkeys": 7649,
      "ĠOLD": 7650,
      "ĠOnly": 7651,
      "Ġguac": 7652,
      "Ġguides": 7653,
      "Ġguided": 7654,
      "Ġpolent": 7655,
      "Ġpassage": 7656,
      "Ġpassangers": 7657,
      "Ġboxing": 7658,
      "Ġboxer": 7659,
      "Ġhangar": 7660,
      "Ġsloped": 7661,
      "ĠFit": 7662,
      "ĠFer": 7663,
      "ĠFed": 7664,
      "ĠFort": 7665,
      "ĠFurn": 7666,
      "ĠFish": 7667,
      "ĠFEN": 7668,
      "ĠFLO": 7669,
      "Ġpastel": 7670,
      "RESS": 7671,
      "ĠCD": 7672,
      "ĠChe": 7673,
      "ĠClo": 7674,
      "ĠCave": 7675,
      "ĠCrest": 7676,
      "ĠCROW": 7677,
      "ĠChicago": 7678,
      "ĠCrosstown": 7679,
      "Ġvideogame": 7680,
      "Ġmonster": 7681,
      "Ġmontage": 7682,
      "Ġprof": 7683,
      "Ġcrows": 7684,
      "Ġclust": 7685,
      "Ġclutter": 7686,
      "Ġlost": 7687,
      "Ġloads": 7688,
      "Ġloitering": 7689,
      "Ġloveseat": 7690,
      "Ġadded": 7691,
      "Ġadorn": 7692,
      "Ġadditional": 7693,
      "Ġtelevis": 7694,
      "Ġtelegraph": 7695,
      "Ġbottled": 7696,
      "Ġdecoratively": 7697,
      "Ġwhoa": 7698,
      "tenance": 7699,
      "Ġhighly": 7700,
      "Ġcolorfully": 7701,
      "Ġperch": 7702,
      "essy": 7703,
      "Ġwalker": 7704,
      "Ġnightstand": 7705,
      "Ġkiddie": 7706,
      "ĠPC": 7707,
      "ĠPAN": 7708,
      "ĠParm": 7709,
      "ĠPedestri": 7710,
      "ĠPINK": 7711,
      "ĠPAV": 7712,
      "ĠPres": 7713,
      "Ġages": 7714,
      "Ġskatepark": 7715,
      "Ġtalbe": 7716,
      "Ġcabbage": 7717,
      "Ġdinos": 7718,
      "Ġknight": 7719,
      "Ġwineglasses": 7720,
      "Ġmexican": 7721,
      "Ġpatron": 7722,
      "Ġpatiently": 7723,
      "ĠIV": 7724,
      "ĠInt": 7725,
      "ĠITS": 7726,
      "gger": 7727,
      "ggies": 7728,
      "Ġridding": 7729,
      "Ġridden": 7730,
      "Ġbagels": 7731,
      "Ġinterstate": 7732,
      "Ġrowers": 7733,
      "Ġrowboat": 7734,
      "Ġrestaurants": 7735,
      "Ġlinen": 7736,
      "Ġlinens": 7737,
      "Ġbooze": 7738,
      "Ġbodysuit": 7739,
      "Ġbarred": 7740,
      "Ġbarrel": 7741,
      "Ġbarbe": 7742,
      "Ġplanted": 7743,
      "Ġplantains": 7744,
      "Ġtypical": 7745,
      "Ġsteering": 7746,
      "Ġorb": 7747,
      "Ġorder": 7748,
      "Ġordered": 7749,
      "Ġordering": 7750,
      "lica": 7751,
      "Ġsleepy": 7752,
      "ĠTHERE": 7753,
      "Ġposters": 7754,
      "ĠMary": 7755,
      "ĠMEN": 7756,
      "ĠMilitary": 7757,
      "ĠMOUN": 7758,
      "ĠMGM": 7759,
      "ĠMerced": 7760,
      "Ġpursing": 7761,
      "Ġpurpo": 7762,
      "bridge": 7763,
      "Ġdarkly": 7764,
      "ĠLo": 7765,
      "ĠLine": 7766,
      "ĠLAND": 7767,
      "ĠLINE": 7768,
      "ĠLynn": 7769,
      "Ġpeer": 7770,
      "Ġpeers": 7771,
      "Ġpeach": 7772,
      "Ġpegs": 7773,
      "Ġpeaking": 7774,
      "Ġpeaches": 7775,
      "Ġpeeling": 7776,
      "Ġpecking": 7777,
      "Ġpews": 7778,
      "Ġpanting": 7779,
      "Ġpanini": 7780,
      "rong": 7781,
      "ATM": 7782,
      "Ġflames": 7783,
      "Ġflambe": 7784,
      "Ġgreet": 7785,
      "Ġgreets": 7786,
      "Ġsalmon": 7787,
      "Ġcappucc": 7788,
      "Ġmultitude": 7789,
      "Ġphotography": 7790,
      "Ġphotographing": 7791,
      "ocal": 7792,
      "ocado": 7793,
      "Ġpoll": 7794,
      "Ġexpl": 7795,
      "Ġexcept": 7796,
      "Ġobsc": 7797,
      "Ġstriking": 7798,
      "Ġstrike": 7799,
      "Ġstrikes": 7800,
      "Ġhoses": 7801,
      "Ġhogs": 7802,
      "izon": 7803,
      "ĠHouse": 7804,
      "ĠHAT": 7805,
      "ĠHallow": 7806,
      "ĠHaight": 7807,
      "Ġmarine": 7808,
      "Ġmarching": 7809,
      "Ġmargar": 7810,
      "Ġfeatured": 7811,
      "Ġcandy": 7812,
      "Ġcandidate": 7813,
      "Ġpaid": 7814,
      "Ġpawing": 7815,
      "Ġpavil": 7816,
      "Ġpencil": 7817,
      "Ġcooker": 7818,
      "Ġcooktop": 7819,
      "Ġcookware": 7820,
      "Ġ\".": 7821,
      "Ġwheat": 7822,
      "Ġfrizz": 7823,
      "Ġdocking": 7824,
      "ĠDC": 7825,
      "ĠDad": 7826,
      "ĠDuck": 7827,
      "ĠDES": 7828,
      "ĠDRY": 7829,
      "ĠDetro": 7830,
      "ĠDIRT": 7831,
      "ĠDisney": 7832,
      "ĠDRESS": 7833,
      "ĠNo": 7834,
      "ĠNot": 7835,
      "Ġcommuters": 7836,
      "Ġcommandments": 7837,
      "Ġdirected": 7838,
      "Ġdirecting": 7839,
      "Ġenjoys": 7840,
      "ĠGO": 7841,
      "ĠGET": 7842,
      "ĠGrand": 7843,
      "ĠGlady": 7844,
      "Ġplastered": 7845,
      "Ġapplies": 7846,
      "Ġfrequently": 7847,
      "Ġfours": 7848,
      "Ġreflect": 7849,
      "Ġcleaners": 7850,
      "Ġamid": 7851,
      "Ġamerican": 7852,
      "berry": 7853,
      "berries": 7854,
      "Ġappliance": 7855,
      "spring": 7856,
      "Ġsquares": 7857,
      "Ġbaseman": 7858,
      "autiful": 7859,
      "Ġgriddle": 7860,
      "rical": 7861,
      "Ġpicked": 7862,
      "Ġdistinctive": 7863,
      "Ġbeauty": 7864,
      "Ġbeautifully": 7865,
      "Ġflatbed": 7866,
      "Ġflatbread": 7867,
      "Ġswimmers": 7868,
      "ĠANOTHER": 7869,
      "inals": 7870,
      "Ġspeak": 7871,
      "Ġspewing": 7872,
      "Ġspeaks": 7873,
      "Ġpaths": 7874,
      "ROUGH": 7875,
      "ROSS": 7876,
      "Ġtrans": 7877,
      "Ġpillars": 7878,
      "Ġengines": 7879,
      "Ġengaging": 7880,
      "Ġstraws": 7881,
      "Ġcarriages": 7882,
      "Ġlands": 7883,
      "Ġteamm": 7884,
      "Ġflowery": 7885,
      "ĠED": 7886,
      "ĠEx": 7887,
      "ĠEAT": 7888,
      "ĠEiff": 7889,
      "ĠEgypt": 7890,
      "Ġcreatures": 7891,
      "Ġeyed": 7892,
      "Ġpartner": 7893,
      "Ġtakeout": 7894,
      "Ġbelongings": 7895,
      "Ġsailor": 7896,
      "selfie": 7897,
      "Ġsubmer": 7898,
      "Ġpadded": 7899,
      "ucky": 7900,
      "Ġletter": 7901,
      "Ġstyled": 7902,
      "Ġstyles": 7903,
      "Ġstyrofoam": 7904,
      "Ġbloom": 7905,
      "Ġbloss": 7906,
      "Ġpitchers": 7907,
      "Ġquite": 7908,
      "Ġquilted": 7909,
      "Ġquiche": 7910,
      "Ġquarter": 7911,
      "Ġstepping": 7912,
      "Ġreflections": 7913,
      "outside": 7914,
      "Ġtins": 7915,
      "Ġtinfo": 7916,
      "Ġturnips": 7917,
      "Ġburnt": 7918,
      "Ġburied": 7919,
      "Ġpacking": 7920,
      "Ġpackage": 7921,
      "Ġpackages": 7922,
      "Ġpackaged": 7923,
      "Ġpackaging": 7924,
      "Ġneckties": 7925,
      "Ġextending": 7926,
      "Ġextern": 7927,
      "Ġexterior": 7928,
      "ĠAREA": 7929,
      "ĠSTOP": 7930,
      "ĠSTUFF": 7931,
      "ONG": 7932,
      "ĠRo": 7933,
      "ĠRACK": 7934,
      "ĠRights": 7935,
      "Ġutil": 7936,
      "Ġtired": 7937,
      "Ġtipped": 7938,
      "Ġfox": 7939,
      "Ġrooster": 7940,
      "banana": 7941,
      "Ġiphone": 7942,
      "Ġcrates": 7943,
      "Ġcrusty": 7944,
      "Ġcrusted": 7945,
      "Ġcrumbling": 7946,
      "Ġplacemat": 7947,
      "Clouds": 7948,
      "female": 7949,
      "Ġdollop": 7950,
      "Ġlower": 7951,
      "Ġchecker": 7952,
      "Ġcheckers": 7953,
      "Ġ138": 7954,
      "Ġhappening": 7955,
      "ENT": 7956,
      "mony": 7957,
      "osure": 7958,
      "Ġbaker": 7959,
      "Ġdiscarded": 7960,
      "Ġdiscussion": 7961,
      "Ġornately": 7962,
      "Ġornaments": 7963,
      "Christmas": 7964,
      "bbey": 7965,
      "Ġcigars": 7966,
      "Ġformed": 7967,
      "Ġformally": 7968,
      "Ġwheelie": 7969,
      "Ġoverlooked": 7970,
      "Ġblocked": 7971,
      "Boxed": 7972,
      "Boston": 7973,
      "Ġtourist": 7974,
      "Ġsculpt": 7975,
      "ĠTHROUGH": 7976,
      "Ġleafs": 7977,
      "ASH": 7978,
      "AST": 7979,
      "ĠVillage": 7980,
      "ĠVolvo": 7981,
      "Ġapart": 7982,
      "Ġcompetes": 7983,
      "ĠKitty": 7984,
      "ĠKorea": 7985,
      "Ġhoodie": 7986,
      "Ġhoused": 7987,
      "died": 7988,
      "Ġentire": 7989,
      "Ġpuppet": 7990,
      "Ġfollow": 7991,
      "Ġglider": 7992,
      "ckeys": 7993,
      "Ġjuicing": 7994,
      "Ġcollege": 7995,
      "coat": 7996,
      "covered": 7997,
      "ibility": 7998,
      "Ġ21": 7999,
      "Ġ23": 8000,
      "Ġ278": 8001,
      "Ġcroiss": 8002,
      "Ġcrouches": 8003,
      "Ġcrook": 8004,
      "Ġfigure": 8005,
      "Ġvisiting": 8006,
      "Ġvisibility": 8007,
      "Ġpositions": 8008,
      "Ġapproach": 8009,
      "ICH": 8010,
      "Ġtwirling": 8011,
      "Ġtwenty": 8012,
      "Ġstillness": 8013,
      "Ġnaps": 8014,
      "Ġshipyard": 8015,
      "Ġrugs": 8016,
      "Ġrugby": 8017,
      "Ġfreezers": 8018,
      "Multi": 8019,
      "Ġaccom": 8020,
      "Ġcapital": 8021,
      "Ġdrape": 8022,
      "Ġdraft": 8023,
      "Ġdragon": 8024,
      "Ġdragging": 8025,
      "Ġladen": 8026,
      "Ġladder": 8027,
      "Ġstructures": 8028,
      "Ġstreamlined": 8029,
      "Ġgrooms": 8030,
      "Ġshould": 8031,
      "appy": 8032,
      "apples": 8033,
      "eests": 8034,
      "Ġwrapping": 8035,
      "Ġwrapper": 8036,
      "Ġinstrum": 8037,
      "Ġmaple": 8038,
      "Ġmagenta": 8039,
      "Ġdepar": 8040,
      "Ġscreensaver": 8041,
      "Ġdelivered": 8042,
      "UTER": 8043,
      "meal": 8044,
      "Ġstretch": 8045,
      "Ġtransporting": 8046,
      "Ġeyeglasses": 8047,
      "ĠSTAND": 8048,
      "Eleven": 8049,
      "Ġaudio": 8050,
      "Ġauditor": 8051,
      "Ġsupport": 8052,
      "Ġcalled": 8053,
      "Ġfern": 8054,
      "Ġmounds": 8055,
      "Ġcompetitors": 8056,
      "Ġcompetitive": 8057,
      "Ġsorts": 8058,
      "Ġfilms": 8059,
      "Ġfilming": 8060,
      "Ġfilmed": 8061,
      "Ġfilthy": 8062,
      "Ġdigs": 8063,
      "Ġparasols": 8064,
      "Ġparasailer": 8065,
      "Ġconduct": 8066,
      "ĠBigelow": 8067,
      "Ġpatchy": 8068,
      "Ġobstacles": 8069,
      "Ġgrilling": 8070,
      "Ġreturned": 8071,
      "Older": 8072,
      "Ġtuna": 8073,
      "Ġangled": 8074,
      "Ġvendors": 8075,
      "Ġsectional": 8076,
      "Ġmodest": 8077,
      "ABLES": 8078,
      "bury": 8079,
      "little": 8080,
      "mbers": 8081,
      "mbling": 8082,
      "Ġsimilar": 8083,
      "Ġsimultaneously": 8084,
      "Ġreceiving": 8085,
      "Ġbacksplash": 8086,
      "Ġconsists": 8087,
      "ĠATM": 8088,
      "ĠATV": 8089,
      "ĠTRACK": 8090,
      "Ġcheeseburger": 8091,
      "ĠLAPT": 8092,
      "Ġpropellers": 8093,
      "IGH": 8094,
      "IGHT": 8095,
      "Surfboards": 8096,
      "ralia": 8097,
      "ĠJack": 8098,
      "Ġabundance": 8099,
      "Ġcops": 8100,
      "Ġfocal": 8101,
      "Ġmuddied": 8102,
      "Ġguitars": 8103,
      "Ġdeter": 8104,
      "Ġdetour": 8105,
      "Ġdetail": 8106,
      "Ġdetailing": 8107,
      "Ġdetailed": 8108,
      "Ġlisting": 8109,
      "Ġstudio": 8110,
      "Ġeveryone": 8111,
      "Ġrepaired": 8112,
      "Ġreplica": 8113,
      "Ġwaffles": 8114,
      "ĠSHAD": 8115,
      "ĠSHORE": 8116,
      "ĠSHOWER": 8117,
      "Ġserviced": 8118,
      "Ġexposure": 8119,
      "Ġnewspapers": 8120,
      "Donald": 8121,
      "Ġpinned": 8122,
      "Ġfillings": 8123,
      "Ġradar": 8124,
      "pective": 8125,
      "Ġwheelers": 8126,
      "Busy": 8127,
      "greens": 8128,
      "Ġactively": 8129,
      "Ġtickets": 8130,
      "Ġwipe": 8131,
      "Ġwipes": 8132,
      "Ġcranes": 8133,
      "Ġhalter": 8134,
      "Ġhalved": 8135,
      "Ġfixes": 8136,
      "Ġfixed": 8137,
      "Ġcharging": 8138,
      "Ġjerseys": 8139,
      "Ġinterested": 8140,
      "Ġfashionable": 8141,
      "Ġprints": 8142,
      "Ġfocused": 8143,
      "Bearded": 8144,
      "Beautiful": 8145,
      "haired": 8146,
      "Ġ32": 8147,
      "ĠYOUN": 8148,
      "ĠYELLOW": 8149,
      "Ġoperates": 8150,
      "Ġthough": 8151,
      "amsung": 8152,
      "Ġhistorical": 8153,
      "Ġsnuggle": 8154,
      "Ġposses": 8155,
      "Ġpossible": 8156,
      "Ġsplashing": 8157,
      "Ġskyscrapers": 8158,
      "Ġimpersonator": 8159,
      "Ġimpressive": 8160,
      "Ġchews": 8161,
      "Ġunits": 8162,
      "ĠCOUP": 8163,
      "Ġadorns": 8164,
      "Ġtrimmed": 8165,
      "Ġmarshmall": 8166,
      "Ġmarshmellow": 8167,
      "ĠDOG": 8168,
      "ĠDOUGH": 8169,
      "Ġ122": 8170,
      "Ġfigurine": 8171,
      "Ġcomfortably": 8172,
      "Head": 8173,
      "Room": 8174,
      "Ġ41": 8175,
      "Ġauto": 8176,
      "Ġbullet": 8177,
      "Ġwarming": 8178,
      "Ġtorn": 8179,
      "Ġtorch": 8180,
      "Ġtorso": 8181,
      "Ġtortil": 8182,
      "Ġtossed": 8183,
      "Ġlabeled": 8184,
      "Ġblinder": 8185,
      "Ġlifted": 8186,
      "Ġseparated": 8187,
      "Ġseparating": 8188,
      "Ġdescen": 8189,
      "Ġmajestic": 8190,
      "Ġarriving": 8191,
      "Ġarrived": 8192,
      "Ġcampfire": 8193,
      "ĠGROUND": 8194,
      "ateboarder": 8195,
      "Carrots": 8196,
      "Pictures": 8197,
      "Shot": 8198,
      "Ġslaw": 8199,
      "Ġbordered": 8200,
      "Ġbandanna": 8201,
      "Ġcertain": 8202,
      "Ġcarefully": 8203,
      "Ġcooling": 8204,
      "Ġanything": 8205,
      "Ġmuffins": 8206,
      "Ġnapping": 8207,
      "Ġnaval": 8208,
      "Ġnavig": 8209,
      "Ġskillfully": 8210,
      "Ġgrowling": 8211,
      "Ġprojected": 8212,
      "Ġartistically": 8213,
      "Ġ1950": 8214,
      "Compact": 8215,
      "Photograph": 8216,
      "Ġpresented": 8217,
      "Motorcycles": 8218,
      "Ġsilhouetted": 8219,
      "Ġsilhouettes": 8220,
      "Bedroom": 8221,
      "Parked": 8222,
      "Scen": 8223,
      "Soccer": 8224,
      "Television": 8225,
      "Veget": 8226,
      "horse": 8227,
      "uisine": 8228,
      "Ġicy": 8229,
      "Ġicebox": 8230,
      "ĠRED": 8231,
      "ĠREMOD": 8232,
      "Ġavocado": 8233,
      "Ġsidelines": 8234,
      "Ġbrace": 8235,
      "Ġbrake": 8236,
      "Ġbrowsing": 8237,
      "Ġonlooker": 8238,
      "Ġincense": 8239,
      "Ġfryer": 8240,
      "Ġmaintain": 8241,
      "Ġmaintenance": 8242,
      "Ġdomestic": 8243,
      "Ġlimes": 8244,
      "Ġlimbs": 8245,
      "Ġstrugg": 8246,
      "Ġstomping": 8247,
      "Ġattending": 8248,
      "Ġattendant": 8249,
      "Ġreadying": 8250,
      "Ġrenovated": 8251,
      "Ġrobes": 8252,
      "Ġsharpie": 8253,
      "striped": 8254,
      "ĠAfrica": 8255,
      "Ġdefender": 8256,
      "Ġsoftball": 8257,
      "ĠBASKET": 8258,
      "ĠCOMING": 8259,
      "Ġhomelessness": 8260,
      "Ġattention": 8261,
      "Ġceremony": 8262,
      "ĠLOTS": 8263,
      "Ġpolitician": 8264,
      "Ġburgers": 8265,
      "ĠVictoria": 8266,
      "Passenger": 8267,
      "Altered": 8268,
      "Alpine": 8269,
      "Bride": 8270,
      "Players": 8271,
      "Ġ747": 8272,
      "ĠZone": 8273,
      "ĠZOO": 8274,
      "ĠAnza": 8275,
      "Ġsightseeing": 8276,
      "Ġblazers": 8277,
      "Ġwould": 8278,
      "Ġwonder": 8279,
      "Ġwondering": 8280,
      "Ġcrypt": 8281,
      "Ġmoment": 8282,
      "Ġmesh": 8283,
      "Ġgoogly": 8284,
      "Ġdrooping": 8285,
      "Ġbeanie": 8286,
      "Ġlamppost": 8287,
      "Ġlevels": 8288,
      "ĠAIRPLANE": 8289,
      "Ġspanning": 8290,
      "Ġsocializing": 8291,
      "Ġsocialize": 8292,
      "Ġunloading": 8293,
      "Ġflavored": 8294,
      "Ġcaptured": 8295,
      "ĠEnglish": 8296,
      "Ġsuburb": 8297,
      "Ġbutterflies": 8298,
      "Ġseasoning": 8299,
      "Ġseasonings": 8300,
      "Ġautomatic": 8301,
      "Ġautomobile": 8302,
      "Ġdescribe": 8303,
      "Ġdescription": 8304,
      "Ġwindsurfing": 8305,
      "Ġemployee": 8306,
      "Ġcontempl": 8307,
      "Crowd": 8308,
      "Crowded": 8309,
      "Jogger": 8310,
      "Jockeys": 8311,
      "PTION": 8312,
      "Pitcher": 8313,
      "Playing": 8314,
      "Plastic": 8315,
      "desk": 8316,
      "Ġ55": 8317,
      "Ġtaped": 8318,
      "Ġtucked": 8319,
      "Ġoxen": 8320,
      "Ġoperated": 8321,
      "Ġsanctuary": 8322,
      "Ġsighn": 8323,
      "Ġcentral": 8324,
      "Ġcuddles": 8325,
      "Ġinjured": 8326,
      "Ġinjuries": 8327,
      "Ġfuton": 8328,
      "Ġmilling": 8329,
      "Ġglacier": 8330,
      "Ġdaughter": 8331,
      "Ġlounging": 8332,
      "Ġlounges": 8333,
      "Ġthinks": 8334,
      "Ġrecipe": 8335,
      "Ġregion": 8336,
      "Ġrecliner": 8337,
      "Ġreclined": 8338,
      "Ġcocktail": 8339,
      "Ġcoconut": 8340,
      "Ġcoconuts": 8341,
      "Ġflops": 8342,
      "Ġcomplex": 8343,
      "Ġconveyer": 8344,
      "Ġconveyor": 8345,
      "Ġspires": 8346,
      "ĠSURF": 8347,
      "ĠSURROUND": 8348,
      "ĠBMW": 8349,
      "ĠBMX": 8350,
      "ĠBRID": 8351,
      "Ġcuriously": 8352,
      "ĠCalifornia": 8353,
      "ĠMOTORCY": 8354,
      "Ġresidence": 8355,
      "Ġpeacefully": 8356,
      "Ġexamines": 8357,
      "Ġexercise": 8358,
      "Ġgrinds": 8359,
      "Ġspecialized": 8360,
      "Ġcollectible": 8361,
      "Commercial": 8362,
      "ĠJapanese": 8363,
      "Ġarchitecture": 8364,
      "Ġarchitectural": 8365,
      "Ġindicating": 8366,
      "Ġtattooed": 8367,
      "ĠBASEBALL": 8368,
      "Ġdolphin": 8369,
      "Ġdolphins": 8370,
      "ĠELEPHANT": 8371,
      "ĠELEPHANTS": 8372,
      "Airplane": 8373,
      "Bikes": 8374,
      "Cluttered": 8375,
      "Dinner": 8376,
      "Family": 8377,
      "Herd": 8378,
      "Office": 8379,
      "Opened": 8380,
      "Pastry": 8381,
      "Railway": 8382,
      "Subway": 8383,
      "Suitcase": 8384,
      "Twp": 8385,
      "Truck": 8386,
      "bands": 8387,
      "folk": 8388,
      "ĠROAD": 8389,
      "Ġtugboat": 8390,
      "Ġtells": 8391,
      "Ġtimes": 8392,
      "Ġbumper": 8393,
      "Ġburners": 8394,
      "Ġwoolen": 8395,
      "Ġpaneled": 8396,
      "Ġclad": 8397,
      "Ġinfant": 8398,
      "Ġfinish": 8399,
      "Ġfestival": 8400,
      "Ġfinishing": 8401,
      "Ġmerchand": 8402,
      "Ġhours": 8403,
      "Ġgauge": 8404,
      "Ġgestures": 8405,
      "Ġgalloping": 8406,
      "Ġdwelling": 8407,
      "Ġlunges": 8408,
      "Ġnursing": 8409,
      "Ġnamed": 8410,
      "Ġbeech": 8411,
      "Ġeagle": 8412,
      "Ġrevealing": 8413,
      "Ġresembling": 8414,
      "Ġtravelers": 8415,
      "Ġkiwi": 8416,
      "Ġkhaki": 8417,
      "Ġlazily": 8418,
      "Ġblueberry": 8419,
      "Ġmotocross": 8420,
      "Ġcompany": 8421,
      "Ġdestination": 8422,
      "Ġconstructed": 8423,
      "ĠALONG": 8424,
      "Ġscrap": 8425,
      "Ġunderside": 8426,
      "Ġspreads": 8427,
      "Ġtechnol": 8428,
      "Ġteacher": 8429,
      "Ġdevises": 8430,
      "Ġhyrd": 8431,
      "ĠSLOP": 8432,
      "ĠSPE": 8433,
      "ĠSydney": 8434,
      "Ġsaucer": 8435,
      "Ġsunflower": 8436,
      "ĠFlorid": 8437,
      "ĠCHAIR": 8438,
      "ĠColgate": 8439,
      "ĠCambridge": 8440,
      "ĠCART": 8441,
      "ĠCONT": 8442,
      "Ġmonorail": 8443,
      "Ġproperty": 8444,
      "Ġperfect": 8445,
      "ĠPolish": 8446,
      "ĠPARKED": 8447,
      "ĠItaly": 8448,
      "Ġmeatballs": 8449,
      "Ġflamingos": 8450,
      "Ġnovelty": 8451,
      "Ġexcited": 8452,
      "Ġexpensive": 8453,
      "Ġexplaining": 8454,
      "ĠHORSE": 8455,
      "ĠNorfolk": 8456,
      "ĠGiraffe": 8457,
      "Ġamazement": 8458,
      "Statue": 8459,
      "Ġequestrian": 8460,
      "Ġwildebeests": 8461,
      "ĠEuropean": 8462,
      "Ġeyeballs": 8463,
      "Ġparticipating": 8464,
      "ĠVEGET": 8465,
      "Advertising": 8466,
      "ĠUnited": 8467,
      "Ġearbuds": 8468,
      "Ġprofessionally": 8469,
      "Ġenthusiast": 8470,
      "ĠTOILET": 8471,
      "Ġconsumption": 8472,
      "ĠTRICKS": 8473,
      "ĠJUMPING": 8474,
      "Ġmaneuver": 8475,
      "Teenager": 8476,
      "ĠCOMPUTER": 8477,
      "Chefs": 8478,
      "Ġoccupied": 8479,
      "Parents": 8480,
      "Ġalertly": 8481,
      "Ġzucchini": 8482,
      "Ġcongregated": 8483,
      "Ġrefridgerator": 8484,
      "ĠBANANAS": 8485,
      "Antique": 8486,
      "Athletes": 8487,
      "African": 8488,
      "Crackers": 8489,
      "Corner": 8490,
      "Crisp": 8491,
      "Display": 8492,
      "Gathering": 8493,
      "IANCES": 8494,
      "Krispy": 8495,
      "Othello": 8496,
      "Paddle": 8497,
      "Painting": 8498,
      "Pizzas": 8499,
      "Panoramic": 8500,
      "Salad": 8501,
      "Sepia": 8502,
      "Stylish": 8503,
      "Vendors": 8504,
      "cards": 8505,
      "iency": 8506,
      "ihuahua": 8507,
      "motor": 8508,
      "odafone": 8509,
      "sheep": 8510,
      "Ġiguana": 8511,
      "intosh": 8512,
      "Ġtiger": 8513,
      "Ġtamale": 8514,
      "Ġtassels": 8515,
      "Ġtrinkets": 8516,
      "Ġoatmeal": 8517,
      "Ġomelet": 8518,
      "Ġsensor": 8519,
      "Ġsquee": 8520,
      "Ġwrought": 8521,
      "Ġperspective": 8522,
      "Ġpenguin": 8523,
      "Ġpudding": 8524,
      "Ġpuddles": 8525,
      "Ġonstage": 8526,
      "Ġinverted": 8527,
      "Ġinsect": 8528,
      "Ġinvolved": 8529,
      "Ġanalog": 8530,
      "Ġancient": 8531,
      "Ġanswering": 8532,
      "Ġmineral": 8533,
      "Ġgigantic": 8534,
      "Ġgadgets": 8535,
      "Ġdunes": 8536,
      "Ġtoucan": 8537,
      "Ġtoliet": 8538,
      "Ġlicense": 8539,
      "Ġlunging": 8540,
      "Ġstroller": 8541,
      "Ġstrung": 8542,
      "Ġstucco": 8543,
      "orgetown": 8544,
      "Ġnecessary": 8545,
      "Ġbejeweled": 8546,
      "Ġefficiency": 8547,
      "Ġcobbled": 8548,
      "Ġcocoa": 8549,
      "Ġplugged": 8550,
      "Ġparmesan": 8551,
      "Ġshaggy": 8552,
      "Ġgrapefruit": 8553,
      "Ġyacht": 8554,
      "Ġyawning": 8555,
      "Ġchubby": 8556,
      "Ġcharming": 8557,
      "Ġvultures": 8558,
      "Ġcarousel": 8559,
      "Ġbusinesses": 8560,
      "Ġflatscreen": 8561,
      "Ġfluorescent": 8562,
      "Ġoutstretched": 8563,
      "Ġrabbit": 8564,
      "Ġbuidings": 8565,
      "Ġbuddha": 8566,
      "Ġsignpost": 8567,
      "Ġseperate": 8568,
      "Ġcompletely": 8569,
      "Ġcongested": 8570,
      "Ġconvertible": 8571,
      "Ġconvention": 8572,
      "Ġconfrontation": 8573,
      "Ġconfetti": 8574,
      "ĠAustralia": 8575,
      "ĠAshbury": 8576,
      "ĠAurora": 8577,
      "ĠApril": 8578,
      "ĠADULT": 8579,
      "ĠAPPLIANCES": 8580,
      "Ġintriguing": 8581,
      "Ġscoreboard": 8582,
      "Ġscissor": 8583,
      "Ġsparkles": 8584,
      "Ġsparrows": 8585,
      "Ġphotoshopped": 8586,
      "Ġfireplug": 8587,
      "Ġtequila": 8588,
      "ĠTexas": 8589,
      "lydesdale": 8590,
      "Ġhybrid": 8591,
      "Seagulls": 8592,
      "ĠSMOKING": 8593,
      "ĠSAYS": 8594,
      "ĠScott": 8595,
      "ĠSports": 8596,
      "ĠSOCCER": 8597,
      "ĠSiamese": 8598,
      "ĠWINDOW": 8599,
      "ĠBENCH": 8600,
      "ĠBoston": 8601,
      "Ġcorridor": 8602,
      "Ġunopened": 8603,
      "Ġguacamole": 8604,
      "ĠFurnace": 8605,
      "ĠFENCE": 8606,
      "ĠFLOOR": 8607,
      "ĠCROWD": 8608,
      "Ġclusters": 8609,
      "ĠParmesan": 8610,
      "ĠPedestrian": 8611,
      "ĠPresident": 8612,
      "Ġdinosaur": 8613,
      "Ġbarbecue": 8614,
      "ĠMOUNTAIN": 8615,
      "ĠMercedes": 8616,
      "Ġcappuccino": 8617,
      "ĠHalloween": 8618,
      "Ġmargarita": 8619,
      "Ġpavilion": 8620,
      "ĠDetroit": 8621,
      "ĠDRESSED": 8622,
      "ĠGladys": 8623,
      "ĠEiffel": 8624,
      "ĠEgyptian": 8625,
      "Ġsubmerged": 8626,
      "Ġtinfoil": 8627,
      "Ġexternal": 8628,
      "ĠSTUFFED": 8629,
      "ĠRACKET": 8630,
      "Ġcrooked": 8631,
      "Ġinstrument": 8632,
      "Ġauditorium": 8633,
      "Ġconductor": 8634,
      "ĠTRACKS": 8635,
      "ĠLAPTOP": 8636,
      "ĠSHADE": 8637,
      "ĠYOUNG": 8638,
      "ĠCOUPLE": 8639,
      "Ġmarshmallows": 8640,
      "Ġmarshmellows": 8641,
      "ĠDOUGHNUTS": 8642,
      "Ġtortilla": 8643,
      "ĠREMODEL": 8644,
      "ĠSURROUNDED": 8645,
      "Ġmerchandise": 8646,
      "Ġtechnolog": 8647,
      "ĠFlorida": 8648,
      "ĠVEGETABLES": 8649,
      "\",": 8650,
      "'d": 8651,
      "'ll": 8652,
      "--": 8653,
      ".]": 8654,
      "02": 8655,
      "05": 8656,
      "009": 8657,
      "17": 8658,
      "21": 8659,
      "201": 8660,
      "2009": 8661,
      "309": 8662,
      "41": 8663,
      "46": 8664,
      "51": 8665,
      "54": 8666,
      "55": 8667,
      "58": 8668,
      "60": 8669,
      "87": 8670,
      "?\"": 8671,
      "AA": 8672,
      "AE": 8673,
      "Am": 8674,
      "At": 8675,
      "Aw": 8676,
      "Aut": 8677,
      "Airl": 8678,
      "Action": 8679,
      "ARE": 8680,
      "AIT": 8681,
      "After": 8682,
      "Aerial": 8683,
      "AKE": 8684,
      "Abbey": 8685,
      "BR": 8686,
      "BS": 8687,
      "Ba": 8688,
      "Ben": 8689,
      "Bal": 8690,
      "Bow": 8691,
      "Boo": 8692,
      "Ball": 8693,
      "Bot": 8694,
      "Bee": 8695,
      "Bull": 8696,
      "Beat": 8697,
      "Brick": 8698,
      "Bac": 8699,
      "Both": 8700,
      "Bart": 8701,
      "BER": 8702,
      "Birth": 8703,
      "Bear": 8704,
      "Bears": 8705,
      "BUR": 8706,
      "BAM": 8707,
      "Books": 8708,
      "BEA": 8709,
      "Baked": 8710,
      "BERY": 8711,
      "Bald": 8712,
      "Broadway": 8713,
      "BNSF": 8714,
      "BLUE": 8715,
      "BWAY": 8716,
      "Ca": 8717,
      "Cre": 8718,
      "Cal": 8719,
      "Con": 8720,
      "Cur": 8721,
      "Cab": 8722,
      "Cam": 8723,
      "Coun": 8724,
      "Cree": 8725,
      "Cake": 8726,
      "Crown": 8727,
      "Cour": 8728,
      "Care": 8729,
      "Cart": 8730,
      "Cooking": 8731,
      "Cather": 8732,
      "CEN": 8733,
      "COW": 8734,
      "Custom": 8735,
      "CTH": 8736,
      "Cooks": 8737,
      "CERY": 8738,
      "Canadian": 8739,
      "Cinnamon": 8740,
      "Chicago": 8741,
      "CROSS": 8742,
      "Clydesdale": 8743,
      "DA": 8744,
      "DE": 8745,
      "DR": 8746,
      "DY": 8747,
      "Da": 8748,
      "Ding": 8749,
      "Del": 8750,
      "Down": 8751,
      "Day": 8752,
      "Dim": 8753,
      "Dies": 8754,
      "Draw": 8755,
      "DLE": 8756,
      "Doll": 8757,
      "Dusk": 8758,
      "DIC": 8759,
      "Downtown": 8760,
      "Dude": 8761,
      "Dishes": 8762,
      "Duffel": 8763,
      "EH": 8764,
      "EX": 8765,
      "EY": 8766,
      "Ex": 8767,
      "Ear": 8768,
      "Ext": 8769,
      "Eight": 8770,
      "Every": 8771,
      "East": 8772,
      "Eating": 8773,
      "EDING": 8774,
      "EPING": 8775,
      "Elvis": 8776,
      "Egypt": 8777,
      "ECOR": 8778,
      "EASH": 8779,
      "FR": 8780,
      "Fl": 8781,
      "Far": 8782,
      "Fed": 8783,
      "Fla": 8784,
      "Fil": 8785,
      "Fri": 8786,
      "Fight": 8787,
      "Fore": 8788,
      "Fly": 8789,
      "Frisbee": 8790,
      "Fast": 8791,
      "Furniture": 8792,
      "Fish": 8793,
      "Fram": 8794,
      "Furry": 8795,
      "Fem": 8796,
      "FIC": 8797,
      "FOR": 8798,
      "Fried": 8799,
      "Fully": 8800,
      "Front": 8801,
      "Flower": 8802,
      "FUL": 8803,
      "GU": 8804,
      "GY": 8805,
      "Ga": 8806,
      "Gi": 8807,
      "Gr": 8808,
      "Gu": 8809,
      "Good": 8810,
      "Gent": 8811,
      "Gour": 8812,
      "GING": 8813,
      "Gold": 8814,
      "GIR": 8815,
      "Glasses": 8816,
      "Grain": 8817,
      "Gothic": 8818,
      "Hi": 8819,
      "Hat": 8820,
      "Hoo": 8821,
      "High": 8822,
      "Hey": 8823,
      "HING": 8824,
      "Hist": 8825,
      "HIC": 8826,
      "Holding": 8827,
      "Hundreds": 8828,
      "Helmet": 8829,
      "Happy": 8830,
      "IP": 8831,
      "IQ": 8832,
      "IX": 8833,
      "Id": 8834,
      "Ite": 8835,
      "IING": 8836,
      "IES": 8837,
      "Ivy": 8838,
      "Icked": 8839,
      "IFF": 8840,
      "IMB": 8841,
      "IFUL": 8842,
      "JO": 8843,
      "Just": 8844,
      "Japan": 8845,
      "KS": 8846,
      "KEN": 8847,
      "KERS": 8848,
      "KATE": 8849,
      "LY": 8850,
      "Lat": 8851,
      "Len": 8852,
      "Lot": 8853,
      "Light": 8854,
      "Lone": 8855,
      "Lake": 8856,
      "Lif": 8857,
      "Look": 8858,
      "Loc": 8859,
      "Landing": 8860,
      "LOT": 8861,
      "LUR": 8862,
      "Lila": 8863,
      "LITTLE": 8864,
      "Lights": 8865,
      "Lettuce": 8866,
      "LIMB": 8867,
      "MT": 8868,
      "Ma": 8869,
      "Me": 8870,
      "Mn": 8871,
      "Min": 8872,
      "Mom": 8873,
      "Med": 8874,
      "Mil": 8875,
      "Mic": 8876,
      "Mand": 8877,
      "Mag": 8878,
      "Mac": 8879,
      "Mud": 8880,
      "MIT": 8881,
      "MID": 8882,
      "Mushroom": 8883,
      "MERS": 8884,
      "Mod": 8885,
      "Mountain": 8886,
      "Memb": 8887,
      "MIL": 8888,
      "Military": 8889,
      "MOTOR": 8890,
      "Messy": 8891,
      "NG": 8892,
      "No": 8893,
      "Nan": 8894,
      "Neat": 8895,
      "NIT": 8896,
      "NAR": 8897,
      "NIC": 8898,
      "NEL": 8899,
      "NSE": 8900,
      "NIQ": 8901,
      "NJO": 8902,
      "Oman": 8903,
      "Pe": 8904,
      "Po": 8905,
      "Pre": 8906,
      "Per": 8907,
      "Pat": 8908,
      "Pen": 8909,
      "Pup": 8910,
      "Pur": 8911,
      "Pople": 8912,
      "Pink": 8913,
      "Pie": 8914,
      "Pine": 8915,
      "Pump": 8916,
      "Pian": 8917,
      "Pans": 8918,
      "PER": 8919,
      "Palm": 8920,
      "PEN": 8921,
      "Pears": 8922,
      "PAS": 8923,
      "Pork": 8924,
      "POR": 8925,
      "PARD": 8926,
      "PUB": 8927,
      "PRES": 8928,
      "PORT": 8929,
      "PIcked": 8930,
      "Res": 8931,
      "Roo": 8932,
      "Rice": 8933,
      "RIN": 8934,
      "Rac": 8935,
      "Rear": 8936,
      "Rem": 8937,
      "Rusty": 8938,
      "Ref": 8939,
      "RINK": 8940,
      "Raw": 8941,
      "River": 8942,
      "Rider": 8943,
      "RUB": 8944,
      "Retro": 8945,
      "RILL": 8946,
      "SA": 8947,
      "SO": 8948,
      "Set": 8949,
      "Sur": 8950,
      "Seat": 8951,
      "SING": 8952,
      "Salm": 8953,
      "SEN": 8954,
      "SES": 8955,
      "Sib": 8956,
      "Series": 8957,
      "SMALL": 8958,
      "SLIC": 8959,
      "Sanit": 8960,
      "Sunset": 8961,
      "Square": 8962,
      "SBS": 8963,
      "SIX": 8964,
      "SKATE": 8965,
      "TO": 8966,
      "Tan": 8967,
      "Tro": 8968,
      "Tom": 8969,
      "Too": 8970,
      "Tree": 8971,
      "Tug": 8972,
      "Tub": 8973,
      "Talk": 8974,
      "Tag": 8975,
      "Trol": 8976,
      "Tool": 8977,
      "TABLE": 8978,
      "Tilted": 8979,
      "Trees": 8980,
      "TTE": 8981,
      "UCH": 8982,
      "Umb": 8983,
      "UARD": 8984,
      "UST": 8985,
      "Utens": 8986,
      "UIET": 8987,
      "Ven": 8988,
      "Video": 8989,
      "VEN": 8990,
      "VERY": 8991,
      "WN": 8992,
      "Wh": 8993,
      "Wall": 8994,
      "Wind": 8995,
      "Well": 8996,
      "Walk": 8997,
      "WING": 8998,
      "WTH": 8999,
      "Water": 9000,
      "Washed": 9001,
      "Waves": 9002,
      "Wrestling": 9003,
      "When": 9004,
      "WICH": 9005,
      "XIS": 9006,
      "YS": 9007,
      "Yes": 9008,
      "Your": 9009,
      "YED": 9010,
      "YES": 9011,
      "YST": 9012,
      "YELLOW": 9013,
      "YCLE": 9014,
      "You": 9015,
      "YDR": 9016,
      "Zoo": 9017,
      "ZEN": 9018,
      "ah": 9019,
      "aing": 9020,
      "aer": 9021,
      "aeball": 9022,
      "arella": 9023,
      "apen": 9024,
      "away": 9025,
      "aii": 9026,
      "awn": 9027,
      "avy": 9028,
      "aerial": 9029,
      "ahorses": 9030,
      "bat": 9031,
      "bar": 9032,
      "bro": 9033,
      "bop": 9034,
      "bot": 9035,
      "big": 9036,
      "back": 9037,
      "bell": 9038,
      "bie": 9039,
      "bull": 9040,
      "base": 9041,
      "bles": 9042,
      "brick": 9043,
      "bones": 9044,
      "bows": 9045,
      "bish": 9046,
      "bear": 9047,
      "bird": 9048,
      "bience": 9049,
      "buy": 9050,
      "bask": 9051,
      "bilia": 9052,
      "batter": 9053,
      "belly": 9054,
      "browns": 9055,
      "bished": 9056,
      "cd": 9057,
      "cal": 9058,
      "cab": 9059,
      "cst": 9060,
      "cycle": 9061,
      "cage": 9062,
      "cari": 9063,
      "cade": 9064,
      "cially": 9065,
      "cils": 9066,
      "cano": 9067,
      "catching": 9068,
      "cope": 9069,
      "ciled": 9070,
      "cuting": 9071,
      "dro": 9072,
      "das": 9073,
      "dri": 9074,
      "dds": 9075,
      "dry": 9076,
      "dating": 9077,
      "dgs": 9078,
      "dish": 9079,
      "ducks": 9080,
      "dams": 9081,
      "dicular": 9082,
      "duffel": 9083,
      "ek": 9084,
      "ean": 9085,
      "ele": 9086,
      "eding": 9087,
      "eel": 9088,
      "eest": 9089,
      "efe": 9090,
      "emo": 9091,
      "ecked": 9092,
      "elers": 9093,
      "edings": 9094,
      "ecil": 9095,
      "elevision": 9096,
      "eorgetown": 9097,
      "ecuting": 9098,
      "fy": 9099,
      "fer": 9100,
      "far": 9101,
      "fes": 9102,
      "for": 9103,
      "fting": 9104,
      "foo": 9105,
      "fall": 9106,
      "fic": 9107,
      "fri": 9108,
      "food": 9109,
      "fight": 9110,
      "fill": 9111,
      "fort": 9112,
      "feat": 9113,
      "falf": 9114,
      "fty": 9115,
      "fold": 9116,
      "final": 9117,
      "feeding": 9118,
      "flage": 9119,
      "flow": 9120,
      "frid": 9121,
      "flowers": 9122,
      "fied": 9123,
      "fused": 9124,
      "fteen": 9125,
      "gi": 9126,
      "gl": 9127,
      "gt": 9128,
      "gro": 9129,
      "gas": 9130,
      "gel": 9131,
      "got": 9132,
      "gers": 9133,
      "girl": 9134,
      "gore": 9135,
      "goes": 9136,
      "gley": 9137,
      "group": 9138,
      "gical": 9139,
      "gular": 9140,
      "gium": 9141,
      "gically": 9142,
      "gaing": 9143,
      "hit": 9144,
      "humb": 9145,
      "hap": 9146,
      "hly": 9147,
      "hang": 9148,
      "hats": 9149,
      "hance": 9150,
      "hold": 9151,
      "hadows": 9152,
      "happy": 9153,
      "iing": 9154,
      "iit": 9155,
      "iar": 9156,
      "iut": 9157,
      "iate": 9158,
      "iage": 9159,
      "ikes": 9160,
      "iac": 9161,
      "iates": 9162,
      "ivers": 9163,
      "iams": 9164,
      "iquit": 9165,
      "ivil": 9166,
      "ibbling": 9167,
      "irely": 9168,
      "ja": 9169,
      "jar": 9170,
      "jump": 9171,
      "jection": 9172,
      "jita": 9173,
      "junction": 9174,
      "kn": 9175,
      "ky": 9176,
      "kle": 9177,
      "keb": 9178,
      "kane": 9179,
      "kia": 9180,
      "kward": 9181,
      "kerly": 9182,
      "kebox": 9183,
      "lt": 9184,
      "lan": 9185,
      "lon": 9186,
      "lot": 9187,
      "lide": 9188,
      "late": 9189,
      "lant": 9190,
      "lim": 9191,
      "lation": 9192,
      "lick": 9193,
      "lugg": 9194,
      "lings": 9195,
      "liz": 9196,
      "lanes": 9197,
      "lines": 9198,
      "lix": 9199,
      "luding": 9200,
      "lory": 9201,
      "looks": 9202,
      "lton": 9203,
      "mn": 9204,
      "mit": 9205,
      "mile": 9206,
      "mly": 9207,
      "mother": 9208,
      "mire": 9209,
      "mud": 9210,
      "momet": 9211,
      "mout": 9212,
      "matic": 9213,
      "mitive": 9214,
      "messy": 9215,
      "nhe": 9216,
      "nes": 9217,
      "non": 9218,
      "nas": 9219,
      "nut": 9220,
      "numb": 9221,
      "ndy": 9222,
      "nuts": 9223,
      "noon": 9224,
      "noc": 9225,
      "nond": 9226,
      "nations": 9227,
      "nants": 9228,
      "nscape": 9229,
      "normal": 9230,
      "nanas": 9231,
      "nouncing": 9232,
      "oro": 9233,
      "ola": 9234,
      "oting": 9235,
      "oid": 9236,
      "over": 9237,
      "outs": 9238,
      "oast": 9239,
      "oron": 9240,
      "ogs": 9241,
      "oday": 9242,
      "odd": 9243,
      "oggy": 9244,
      "oured": 9245,
      "ohu": 9246,
      "ooming": 9247,
      "obama": 9248,
      "ohette": 9249,
      "pm": 9250,
      "pit": 9251,
      "pro": 9252,
      "pard": 9253,
      "pile": 9254,
      "pain": 9255,
      "pair": 9256,
      "pane": 9257,
      "pip": 9258,
      "pies": 9259,
      "pera": 9260,
[...]
